[UNK]	0
[BOS]	0
[EOS]	0
<|im_start|>	0
<|im_end|>	0
<0x00>	0
<0x01>	0
<0x02>	0
<0x03>	0
<0x04>	0
<0x05>	0
<0x06>	0
<0x07>	0
<0x08>	0
<0x09>	0
<0x0A>	0
<0x0B>	0
<0x0C>	0
<0x0D>	0
<0x0E>	0
<0x0F>	0
<0x10>	0
<0x11>	0
<0x12>	0
<0x13>	0
<0x14>	0
<0x15>	0
<0x16>	0
<0x17>	0
<0x18>	0
<0x19>	0
<0x1A>	0
<0x1B>	0
<0x1C>	0
<0x1D>	0
<0x1E>	0
<0x1F>	0
<0x20>	0
<0x21>	0
<0x22>	0
<0x23>	0
<0x24>	0
<0x25>	0
<0x26>	0
<0x27>	0
<0x28>	0
<0x29>	0
<0x2A>	0
<0x2B>	0
<0x2C>	0
<0x2D>	0
<0x2E>	0
<0x2F>	0
<0x30>	0
<0x31>	0
<0x32>	0
<0x33>	0
<0x34>	0
<0x35>	0
<0x36>	0
<0x37>	0
<0x38>	0
<0x39>	0
<0x3A>	0
<0x3B>	0
<0x3C>	0
<0x3D>	0
<0x3E>	0
<0x3F>	0
<0x40>	0
<0x41>	0
<0x42>	0
<0x43>	0
<0x44>	0
<0x45>	0
<0x46>	0
<0x47>	0
<0x48>	0
<0x49>	0
<0x4A>	0
<0x4B>	0
<0x4C>	0
<0x4D>	0
<0x4E>	0
<0x4F>	0
<0x50>	0
<0x51>	0
<0x52>	0
<0x53>	0
<0x54>	0
<0x55>	0
<0x56>	0
<0x57>	0
<0x58>	0
<0x59>	0
<0x5A>	0
<0x5B>	0
<0x5C>	0
<0x5D>	0
<0x5E>	0
<0x5F>	0
<0x60>	0
<0x61>	0
<0x62>	0
<0x63>	0
<0x64>	0
<0x65>	0
<0x66>	0
<0x67>	0
<0x68>	0
<0x69>	0
<0x6A>	0
<0x6B>	0
<0x6C>	0
<0x6D>	0
<0x6E>	0
<0x6F>	0
<0x70>	0
<0x71>	0
<0x72>	0
<0x73>	0
<0x74>	0
<0x75>	0
<0x76>	0
<0x77>	0
<0x78>	0
<0x79>	0
<0x7A>	0
<0x7B>	0
<0x7C>	0
<0x7D>	0
<0x7E>	0
<0x7F>	0
<0x80>	0
<0x81>	0
<0x82>	0
<0x83>	0
<0x84>	0
<0x85>	0
<0x86>	0
<0x87>	0
<0x88>	0
<0x89>	0
<0x8A>	0
<0x8B>	0
<0x8C>	0
<0x8D>	0
<0x8E>	0
<0x8F>	0
<0x90>	0
<0x91>	0
<0x92>	0
<0x93>	0
<0x94>	0
<0x95>	0
<0x96>	0
<0x97>	0
<0x98>	0
<0x99>	0
<0x9A>	0
<0x9B>	0
<0x9C>	0
<0x9D>	0
<0x9E>	0
<0x9F>	0
<0xA0>	0
<0xA1>	0
<0xA2>	0
<0xA3>	0
<0xA4>	0
<0xA5>	0
<0xA6>	0
<0xA7>	0
<0xA8>	0
<0xA9>	0
<0xAA>	0
<0xAB>	0
<0xAC>	0
<0xAD>	0
<0xAE>	0
<0xAF>	0
<0xB0>	0
<0xB1>	0
<0xB2>	0
<0xB3>	0
<0xB4>	0
<0xB5>	0
<0xB6>	0
<0xB7>	0
<0xB8>	0
<0xB9>	0
<0xBA>	0
<0xBB>	0
<0xBC>	0
<0xBD>	0
<0xBE>	0
<0xBF>	0
<0xC0>	0
<0xC1>	0
<0xC2>	0
<0xC3>	0
<0xC4>	0
<0xC5>	0
<0xC6>	0
<0xC7>	0
<0xC8>	0
<0xC9>	0
<0xCA>	0
<0xCB>	0
<0xCC>	0
<0xCD>	0
<0xCE>	0
<0xCF>	0
<0xD0>	0
<0xD1>	0
<0xD2>	0
<0xD3>	0
<0xD4>	0
<0xD5>	0
<0xD6>	0
<0xD7>	0
<0xD8>	0
<0xD9>	0
<0xDA>	0
<0xDB>	0
<0xDC>	0
<0xDD>	0
<0xDE>	0
<0xDF>	0
<0xE0>	0
<0xE1>	0
<0xE2>	0
<0xE3>	0
<0xE4>	0
<0xE5>	0
<0xE6>	0
<0xE7>	0
<0xE8>	0
<0xE9>	0
<0xEA>	0
<0xEB>	0
<0xEC>	0
<0xED>	0
<0xEE>	0
<0xEF>	0
<0xF0>	0
<0xF1>	0
<0xF2>	0
<0xF3>	0
<0xF4>	0
<0xF5>	0
<0xF6>	0
<0xF7>	0
<0xF8>	0
<0xF9>	0
<0xFA>	0
<0xFB>	0
<0xFC>	0
<0xFD>	0
<0xFE>	0
<0xFF>	0
,	-3.2662
.	-3.62235
▁	-3.65191
▁và	-4.42894
1	-4.47593
0	-4.56732
▁của	-4.57366
2	-4.71438
▁các	-4.78263
▁là	-4.85016
▁có	-4.94839
▁trong	-4.97478
▁một	-5.04656
▁được	-5.06681
▁đã	-5.23176
▁cho	-5.25377
▁với	-5.25663
-	-5.30635
▁(	-5.30822
▁người	-5.31549
▁không	-5.40384
▁công	-5.44394
9	-5.52623
▁năm	-5.52878
3	-5.59267
▁những	-5.59335
5	-5.64384
▁để	-5.69804
:	-5.71602
▁này	-5.72377
▁tại	-5.73684
▁khi	-5.74451
▁vào	-5.74547
▁ra	-5.75602
▁sự	-5.75899
▁ở	-5.77363
▁từ	-5.79297
▁thành	-5.79385
▁về	-5.80221
7	-5.80349
4	-5.81176
▁đến	-5.82805
▁thể	-5.83068
)	-5.84541
8	-5.88287
6	-5.8904
▁chính	-5.96197
▁quốc	-5.96622
▁ngày	-5.97228
▁việc	-5.97945
▁bị	-5.97968
▁đầu	-5.98459
▁nam	-5.99492
▁nhà	-6.00405
▁trên	-6.00542
▁đó	-6.01022
▁hiện	-6.01225
▁"	-6.0455
▁nhiều	-6.06595
▁quan	-6.09073
▁động	-6.0953
▁ông	-6.09846
▁số	-6.09898
▁như	-6.10555
▁đồng	-6.12133
▁bộ	-6.13862
▁theo	-6.13876
▁sau	-6.14163
▁gia	-6.14231
▁định	-6.15209
▁nước	-6.15288
▁học	-6.16135
▁làm	-6.17804
▁cũng	-6.21881
▁nhân	-6.22638
▁lại	-6.23734
▁việt	-6.26908
▁chỉ	-6.26985
▁sẽ	-6.28243
/	-6.29852
▁trung	-6.30053
▁hội	-6.33745
▁thời	-6.34354
▁trường	-6.34757
▁nhất	-6.34861
▁phát	-6.35523
▁thông	-6.40322
▁dân	-6.40772
▁cơ	-6.42011
▁hành	-6.42353
▁do	-6.44322
▁đại	-6.44688
▁anh	-6.44692
▁hơn	-6.44965
▁lý	-6.45945
▁thế	-6.46133
▁còn	-6.4674
▁phải	-6.47311
▁hợp	-6.48057
▁hàng	-6.48493
▁tháng	-6.48941
▁điều	-6.49247
▁thực	-6.50376
▁hình	-6.50549
▁qua	-6.51447
▁văn	-6.52466
▁chức	-6.53619
▁sinh	-6.5417
▁chủ	-6.54638
▁vụ	-6.54925
▁viên	-6.55341
▁dụng	-6.55674
▁đối	-6.57521
▁nhưng	-6.58879
▁trước	-6.59517
▁trình	-6.60376
▁cao	-6.60394
▁cùng	-6.60546
▁con	-6.61266
▁an	-6.61498
▁kết	-6.61626
▁nhận	-6.62653
▁quân	-6.62937
▁cách	-6.63123
▁mà	-6.63422
▁sử	-6.63839
▁giải	-6.64368
▁sản	-6.65583
▁liên	-6.66807
▁cuộc	-6.67263
▁mới	-6.67558
s	-6.67647
▁tế	-6.67743
▁hai	-6.68797
▁lượng	-6.69028
▁bản	-6.69415
▁xuất	-6.70044
▁đang	-6.70672
▁khác	-6.71457
▁tin	-6.71864
▁tiếp	-6.71913
▁thủ	-6.72379
▁thống	-6.72429
▁năng	-6.72869
▁độ	-6.76094
▁chiến	-6.76433
▁biết	-6.77424
▁đây	-6.77513
▁giá	-6.77863
▁giới	-6.79539
▁vị	-6.80028
▁pháp	-6.80108
▁thị	-6.80359
▁the	-6.81419
▁tạo	-6.81492
▁cầu	-6.81908
▁lực	-6.82043
▁điểm	-6.82705
▁nội	-6.82843
▁hóa	-6.83053
▁kinh	-6.83531
▁thường	-6.83917
▁tác	-6.84027
▁đội	-6.84369
▁xã	-6.84476
▁lớn	-6.85045
▁cả	-6.85372
▁nghiệp	-6.8551
▁đường	-6.8558
▁vì	-6.85918
▁tổ	-6.85992
▁đi	-6.86037
▁báo	-6.86255
▁phần	-6.86469
▁lên	-6.86703
▁tư	-6.86847
▁tự	-6.8705
▁bằng	-6.87106
▁cấp	-6.87791
▁toàn	-6.89396
▁hoặc	-6.89509
▁mỹ	-6.89529
▁triển	-6.89599
▁dự	-6.90349
▁mục	-6.90555
▁bảo	-6.90728
▁tổng	-6.90744
▁rằng	-6.9117
▁tiên	-6.91584
▁hệ	-6.91854
▁đề	-6.92035
▁tỉnh	-6.92072
▁bình	-6.93081
▁họ	-6.93401
▁ban	-6.93556
▁tính	-6.93708
▁diễn	-6.94192
▁kỳ	-6.95088
▁rất	-6.96415
▁mặt	-6.96562
▁thì	-6.96652
),	-6.96701
▁khu	-6.96877
▁tăng	-6.9689
▁nên	-6.97022
▁bài	-6.97133
▁phương	-6.97193
▁hà	-6.97488
▁tài	-6.97916
▁thức	-6.97966
▁tập	-6.98829
▁minh	-6.98834
▁trọng	-6.98866
▁nay	-6.98938
▁tới	-7.00437
▁tôi	-7.01117
▁tình	-7.01351
;	-7.01461
▁giáo	-7.0148
▁thanh	-7.01494
▁mình	-7.01636
▁thứ	-7.02309
▁nhiên	-7.02359
▁địa	-7.02798
▁nguyễn	-7.03617
▁giao	-7.0477
▁trị	-7.04822
▁lập	-7.05032
▁hiệu	-7.05338
▁đạo	-7.0573
▁án	-7.0573
▁thi	-7.05955
▁gian	-7.06769
▁tâm	-7.06856
▁thu	-7.07029
▁quyền	-7.0704
▁trở	-7.07409
▁ảnh	-7.07446
▁phòng	-7.08483
).	-7.08763
▁vẫn	-7.09528
▁quyết	-7.10041
▁xe	-7.10356
▁ý	-7.11149
"	-7.11213
▁a	-7.11402
▁nguyên	-7.12731
▁sở	-7.12931
▁viết	-7.13893
▁chúng	-7.1402
▁chất	-7.14086
▁tiền	-7.1417
▁ngoài	-7.14393
▁đất	-7.14756
▁loại	-7.15301
▁thương	-7.16
▁lần	-7.16103
▁quả	-7.16135
▁tham	-7.17714
▁nói	-7.17757
▁điện	-7.1872
▁vực	-7.18796
▁bắt	-7.18904
▁máy	-7.18951
▁vật	-7.19061
▁tiêu	-7.19171
▁hoạt	-7.19522
▁cần	-7.20455
▁nghệ	-7.21105
▁bạn	-7.21634
▁tra	-7.2173
▁sĩ	-7.21874
▁đấu	-7.22007
▁truyền	-7.22099
▁hay	-7.22122
▁doanh	-7.22173
▁tích	-7.22966
▁đổi	-7.23052
▁trưởng	-7.23139
▁giữa	-7.23276
▁tiếng	-7.23671
▁quy	-7.23757
▁thái	-7.23939
▁tên	-7.24117
m	-7.24467
▁sáng	-7.24638
▁đánh	-7.25598
▁thiết	-7.25667
▁đoàn	-7.25837
▁ty	-7.26735
▁in	-7.27002
▁sống	-7.27456
▁thấy	-7.27725
▁phố	-7.27981
▁đông	-7.28018
▁đặc	-7.282
▁chuyển	-7.28615
t	-7.29832
▁khoảng	-7.30154
▁mạnh	-7.30498
▁vi	-7.30597
▁dùng	-7.30673
▁lịch	-7.30768
▁chế	-7.31135
▁bóng	-7.31601
▁tiến	-7.31639
▁biệt	-7.31778
▁cô	-7.32128
▁trận	-7.32523
▁quá	-7.32681
▁hoa	-7.33012
▁thuật	-7.33214
▁tuy	-7.33223
▁cảnh	-7.33355
▁triệu	-7.33664
▁tục	-7.33806
▁thuộc	-7.33906
▁phạm	-7.34343
▁đình	-7.34899
▁bố	-7.35125
▁đưa	-7.35249
▁vừa	-7.353
▁ba	-7.35301
n	-7.36347
▁hoàng	-7.36371
▁giúp	-7.3642
▁phẩm	-7.36532
▁trang	-7.36568
▁châu	-7.36746
▁dịch	-7.37131
▁bất	-7.37882
▁/	-7.37938
▁tranh	-7.38039
▁dựng	-7.3876
▁bao	-7.38765
▁kiến	-7.38904
▁tượng	-7.39392
▁sát	-7.3943
▁xây	-7.39654
▁gần	-7.40093
▁khai	-7.40113
▁đơn	-7.40179
▁phủ	-7.40201
▁huyện	-7.40703
▁tuổi	-7.41567
▁hòa	-7.41619
▁chưa	-7.41889
▁thay	-7.42232
▁chí	-7.42513
▁luật	-7.42758
▁nó	-7.4283
▁dẫn	-7.43222
▁cổ	-7.43235
▁phân	-7.43609
▁sách	-7.43702
▁kế	-7.43751
▁nghị	-7.442
▁bên	-7.44456
▁mang	-7.44512
▁bán	-7.44817
▁hoàn	-7.4491
▁gồm	-7.45104
▁ta	-7.45416
▁ca	-7.45799
▁bà	-7.45837
▁nào	-7.45895
▁nhau	-7.45952
▁cộng	-7.46083
▁cứu	-7.46197
▁biến	-7.46207
▁ăn	-7.46343
▁diện	-7.46477
▁cảm	-7.46477
▁yêu	-7.46909
▁tử	-7.47006
▁ứng	-7.47008
▁danh	-7.47135
▁liệu	-7.47401
▁tp	-7.47549
▁nhiệm	-7.47932
▁gây	-7.47938
▁kiểm	-7.49465
▁khí	-7.49491
▁di	-7.50505
▁nếu	-7.50656
i	-7.50956
▁nghĩa	-7.51415
▁phong	-7.5145
▁bắc	-7.51486
▁đều	-7.51872
▁đức	-7.51899
▁vấn	-7.51918
▁biểu	-7.52104
▁trí	-7.52139
▁chi	-7.52283
▁tây	-7.52307
▁khiến	-7.52441
▁khách	-7.52452
▁xác	-7.54035
▁bởi	-7.5415
▁quản	-7.54501
▁cá	-7.54932
%	-7.55207
▁câu	-7.55209
▁giữ	-7.55309
▁cuối	-7.56318
▁phục	-7.56321
▁tỷ	-7.56475
▁cáo	-7.56762
▁giảm	-7.57301
▁nữ	-7.57478
▁gọi	-7.57762
▁chương	-7.57985
▁vùng	-7.58183
▁so	-7.58249
▁nơi	-7.58371
▁tìm	-7.59612
▁**	-7.59807
▁hồ	-7.59954
▁hải	-7.60042
▁bàn	-7.60157
▁đá	-7.60291
▁em	-7.60381
▁thêm	-7.60679
a	-7.6071
▁chung	-7.60863
▁bệnh	-7.61115
▁of	-7.61195
▁vệ	-7.61324
h	-7.61342
c	-7.61568
▁mạng	-7.62003
▁tay	-7.62187
▁vũ	-7.62323
▁hậu	-7.62439
▁viện	-7.63032
▁phía	-7.6342
'	-7.63633
▁c	-7.63658
▁phim	-7.64418
▁thắng	-7.64773
▁trợ	-7.64858
▁từng	-7.64981
▁kiện	-7.65096
▁giờ	-7.65158
▁lời	-7.65165
▁khả	-7.65896
▁tương	-7.66025
▁sức	-7.66208
▁lợi	-7.66624
▁nhóm	-7.66955
▁dù	-7.67384
▁phụ	-7.67449
▁trẻ	-7.67531
▁chứng	-7.67696
▁thân	-7.6838
▁kỷ	-7.68567
▁tinh	-7.68571
▁nguồn	-7.68725
▁nhạc	-7.6967
▁du	-7.69939
▁tướng	-7.70066
▁mức	-7.70244
▁cung	-7.70278
▁lãnh	-7.70986
▁bay	-7.71097
▁bỏ	-7.71336
▁tấn	-7.71781
▁sân	-7.72278
▁nổi	-7.72566
▁dài	-7.72572
▁s	-7.72713
▁xử	-7.72952
▁chuyên	-7.72963
▁vậy	-7.73221
▁sơn	-7.74033
▁to	-7.74161
▁yếu	-7.74342
▁hướng	-7.744
▁lê	-7.74405
▁chiếc	-7.74846
▁giả	-7.75225
▁hưởng	-7.75261
▁nhật	-7.75382
▁trần	-7.75437
▁u	-7.75508
▁nhập	-7.75513
▁mở	-7.75566
▁tịch	-7.75591
▁đạt	-7.75853
▁sắc	-7.75986
▁vận	-7.76475
▁đoạn	-7.76788
▁lan	-7.77041
▁nga	-7.7705
▁ngay	-7.77194
▁triều	-7.77675
g	-7.77757
▁thần	-7.77992
▁lưu	-7.78053
▁tốt	-7.7807
▁dương	-7.78408
▁m	-7.78676
▁ký	-7.79079
▁vô	-7.79157
▁giám	-7.79345
▁hộ	-7.79661
▁luận	-7.79864
▁chuẩn	-7.79925
▁hạn	-7.80166
▁khó	-7.80189
...	-7.80244
▁khoa	-7.8025
▁biển	-7.80939
▁phản	-7.81142
▁thích	-7.81368
▁kỹ	-7.8169
▁sao	-7.81784
▁trực	-7.81929
▁tàu	-7.82294
▁tố	-7.82312
▁chia	-7.82776
▁mỗi	-7.83053
▁dưới	-7.83132
▁đặt	-7.83406
▁chọn	-7.83634
▁lúc	-7.83682
▁nhỏ	-7.84078
▁xem	-7.84391
▁ngoại	-7.84531
▁phép	-7.84736
▁âm	-7.85027
▁hữu	-7.85575
▁hồi	-7.85671
▁trò	-7.85842
▁ủy	-7.86034
▁mô	-7.86269
▁áp	-7.864
▁and	-7.86727
▁thư	-7.86748
▁đời	-7.87083
▁sang	-7.87498
▁vai	-7.88
▁rõ	-7.8838
▁muốn	-7.88531
▁đô	-7.88758
▁ngành	-7.88917
▁đa	-7.89055
▁tiết	-7.89269
▁duy	-7.89292
▁b	-7.89548
▁lễ	-7.89799
▁đảng	-7.89811
▁đóng	-7.90325
▁nhằm	-7.90465
▁la	-7.91068
▁mua	-7.91081
▁ninh	-7.91119
▁kể	-7.91148
▁dung	-7.91781
▁phó	-7.91888
▁cố	-7.92302
▁mùa	-7.9308
▁trả	-7.93085
▁tối	-7.93155
▁dục	-7.93526
▁hết	-7.9356
▁chống	-7.93571
▁quảng	-7.93739
▁ma	-7.94001
▁hoạch	-7.94722
▁mọi	-7.94866
▁nghiên	-7.94955
▁tuyên	-7.95071
▁rộng	-7.95113
▁phi	-7.95345
▁mất	-7.95412
▁'	-7.95566
▁y	-7.95624
▁chiều	-7.95631
d	-7.95859
▁vòng	-7.96995
▁tất	-7.97124
▁is	-7.97795
▁long	-7.98651
▁cụ	-7.98869
p	-7.99405
▁cái	-7.99462
▁xảy	-7.99605
▁chơi	-7.99679
▁ghi	-7.99856
▁nông	-8.00331
▁ít	-8.0061
▁đảo	-8.01196
▁ngân	-8.01689
▁nền	-8.01691
▁gặp	-8.01812
▁đảm	-8.01963
▁độc	-8.02455
▁trái	-8.02983
▁ai	-8.03091
▁nghiệm	-8.03396
▁rồi	-8.03464
▁trạng	-8.03487
▁môi	-8.03891
▁thiên	-8.0404
▁biên	-8.04302
▁vương	-8.04459
▁cạnh	-8.04592
▁thuận	-8.04621
▁cử	-8.04748
▁cực	-8.04902
▁huy	-8.05321
▁ngữ	-8.0554
▁kim	-8.06122
▁đẹp	-8.06173
▁nạn	-8.06834
▁hôm	-8.07027
o	-8.07491
▁chuyện	-8.07714
▁đốc	-8.07934
▁gì	-8.07955
▁lao	-8.08002
▁đáng	-8.08038
▁ubnd	-8.08517
▁hỏi	-8.08635
e	-8.08979
▁nhanh	-8.09169
b	-8.09601
▁bước	-8.09779
▁mắt	-8.10219
y	-8.10831
▁t	-8.11049
▁lạc	-8.11441
▁quận	-8.11732
▁phí	-8.119
▁riêng	-8.12149
▁tuyển	-8.1228
▁vốn	-8.12291
▁hỗ	-8.12482
▁xét	-8.12589
▁đủ	-8.12651
▁mặc	-8.1266
▁ngôi	-8.12951
▁khẩu	-8.13037
▁thiếu	-8.1381
▁phá	-8.14228
▁nằm	-8.14444
ng	-8.145
▁xuống	-8.14766
u	-8.14804
▁cây	-8.15865
▁quang	-8.16502
▁cửa	-8.16516
▁đăng	-8.16576
▁tuần	-8.16611
▁vàng	-8.16731
▁da	-8.17563
▁mẹ	-8.17626
▁xuân	-8.17841
▁đồ	-8.17894
▁h	-8.1829
▁lấy	-8.18844
▁lệ	-8.18901
▁màu	-8.19204
▁đào	-8.19497
▁vua	-8.19977
▁sông	-8.20092
▁á	-8.20354
▁tuyến	-8.20697
▁phú	-8.20873
▁chết	-8.20933
▁hiệp	-8.20943
▁chân	-8.21127
▁góp	-8.21551
▁phiên	-8.21587
▁thủy	-8.21647
▁âu	-8.21947
▁niên	-8.21978
▁sư	-8.22158
▁co	-8.22187
▁đúng	-8.22331
▁lửa	-8.22462
▁lĩnh	-8.22611
▁giai	-8.22659
▁hàn	-8.22951
▁dạng	-8.23044
▁phối	-8.23074
▁môn	-8.23362
▁cư	-8.23471
▁binh	-8.23703
▁khỏi	-8.23858
▁hạ	-8.23919
▁ấn	-8.24047
▁tưởng	-8.24598
▁nhiệt	-8.24679
▁miền	-8.24749
▁usd	-8.24916
▁toán	-8.25056
▁cục	-8.25185
▁lớp	-8.25387
▁giành	-8.25884
▁tân	-8.26249
▁luôn	-8.26286
▁lo	-8.26453
▁nghi	-8.26626
▁khởi	-8.26668
▁v	-8.26725
▁hương	-8.26862
▁xúc	-8.26946
▁linh	-8.27317
▁chấp	-8.27325
▁tội	-8.27368
▁thúc	-8.2738
".	-8.27663
▁de	-8.27807
▁trì	-8.27838
▁trao	-8.28236
▁chị	-8.28366
▁trách	-8.28418
▁was	-8.28616
▁cải	-8.28679
▁cường	-8.28894
▁tộc	-8.2892
▁gái	-8.28966
▁chiếm	-8.29374
▁sai	-8.29554
▁sơ	-8.29692
▁cứ	-8.29852
▁hạt	-8.29881
▁hồng	-8.29977
▁hiểu	-8.3021
▁p	-8.30213
▁đàn	-8.30453
▁sâu	-8.30753
▁thảo	-8.30844
▁nữa	-8.31318
▁mẫu	-8.31386
▁đầy	-8.31662
▁ánh	-8.31947
▁đứng	-8.32019
▁phóng	-8.32041
▁“	-8.32168
▁;	-8.32375
▁buổi	-8.32724
▁thoại	-8.33386
▁thiện	-8.33455
▁tải	-8.34157
▁chạy	-8.34281
▁phổ	-8.3437
▁đế	-8.34516
▁ngọc	-8.34782
▁trai	-8.34796
▁hát	-8.3498
▁lộ	-8.35717
▁tôn	-8.36094
▁d	-8.36143
▁nhìn	-8.36444
▁soát	-8.36912
▁tiểu	-8.37036
▁g	-8.37114
▁e	-8.37585
▁vọng	-8.37795
▁vượt	-8.37807
▁đua	-8.3783
k	-8.38082
▁bầu	-8.38196
▁hạng	-8.38368
▁lòng	-8.384
▁tòa	-8.38484
▁đà	-8.38732
l	-8.38923
▁hại	-8.39066
▁càng	-8.3959
▁mại	-8.39927
▁thất	-8.40528
▁chịu	-8.40682
▁xa	-8.4112
▁ngôn	-8.41165
▁dễ	-8.41184
v	-8.41284
▁dòng	-8.41509
▁yên	-8.41545
▁song	-8.41614
▁mối	-8.41714
▁sa	-8.42052
▁kích	-8.42065
▁phù	-8.42229
▁khăn	-8.42324
▁lai	-8.4266
▁căn	-8.42742
▁nâng	-8.42842
▁khá	-8.4301
▁bổ	-8.43154
▁phúc	-8.43195
▁bí	-8.43235
▁tín	-8.43286
▁suất	-8.4335
▁kéo	-8.43365
▁chú	-8.4365
▁sẻ	-8.43754
▁cập	-8.43763
▁mã	-8.43971
▁giang	-8.44119
r	-8.44448
▁đôi	-8.44572
▁tai	-8.4481
▁lâm	-8.44833
▁quý	-8.44876
▁khẳng	-8.45361
▁áo	-8.45507
▁f	-8.45863
▁tốc	-8.45995
▁tông	-8.46364
▁giống	-8.46495
▁đêm	-8.46924
▁l	-8.46954
▁nghiêm	-8.46959
▁i	-8.47008
▁buộc	-8.47101
▁dầu	-8.47155
:**	-8.47196
▁trúc	-8.47294
▁thuyết	-8.47346
▁xuyên	-8.47518
▁nha	-8.47615
▁đẩy	-8.47751
▁địch	-8.48103
▁lương	-8.48171
▁nguy	-8.48285
▁lâu	-8.48314
▁bánh	-8.48444
▁trời	-8.48455
▁thịt	-8.48612
▁mai	-8.48737
▁bức	-8.4874
▁niệm	-8.48847
▁cán	-8.48959
▁k	-8.48991
▁dành	-8.49321
▁thật	-8.4944
▁va	-8.49502
▁ấy	-8.49565
▁phường	-8.5043
▁phút	-8.50736
▁cấu	-8.50779
▁xếp	-8.51207
▁ô	-8.51617
▁bảng	-8.51619
▁thao	-8.51623
▁thưởng	-8.51802
▁al	-8.51829
▁ngờ	-8.51987
▁kiếm	-8.52086
▁tức	-8.52174
ed	-8.5233
▁vài	-8.52454
▁gửi	-8.52672
▁lục	-8.52924
▁can	-8.52998
▁chỉnh	-8.5325
▁lệnh	-8.53323
▁món	-8.53327
▁dấu	-8.53603
▁vợ	-8.54048
▁*	-8.54813
▁họp	-8.54869
▁nặng	-8.5518
▁n	-8.55194
▁thấp	-8.55225
▁mộ	-8.55418
▁hãng	-8.55457
▁loài	-8.55883
▁bang	-8.56298
▁he	-8.56612
▁phạt	-8.56682
▁luyện	-8.56836
▁trương	-8.56921
▁cha	-8.5707
▁thổ	-8.5707
▁nối	-8.57161
▁đài	-8.57178
▁dữ	-8.57223
▁khoản	-8.57383
▁thuế	-8.576
▁tồn	-8.57707
▁su	-8.57963
▁khắc	-8.58152
▁thượng	-8.58201
▁tầng	-8.58541
▁dựa	-8.59952
▁giấy	-8.60007
▁coi	-8.60064
▁thuốc	-8.60586
▁gốc	-8.60622
▁thí	-8.61072
▁tạp	-8.61075
▁ương	-8.61245
▁dụ	-8.61777
”	-8.6208
▁mật	-8.62137
▁phiếu	-8.62238
▁tiện	-8.62737
▁thử	-8.62793
▁trụ	-8.62966
▁xin	-8.63126
▁hiểm	-8.63252
▁ước	-8.63293
▁hút	-8.63349
▁tu	-8.63395
▁thừa	-8.63536
▁hầu	-8.63756
▁khủng	-8.63771
▁quanh	-8.63864
▁lược	-8.6438
▁ưu	-8.64811
▁bé	-8.64882
▁khán	-8.65117
▁tái	-8.6547
▁o	-8.65479
▁nghe	-8.6551
▁nhờ	-8.66169
▁hùng	-8.66465
▁loạt	-8.66822
▁đổ	-8.67045
▁núi	-8.67103
▁trải	-8.67339
▁quay	-8.67523
▁chồng	-8.67563
▁nhu	-8.67602
ing	-8.6809
▁đỏ	-8.68097
▁r	-8.68177
▁thẩm	-8.68225
▁bại	-8.68251
▁hy	-8.68407
x	-8.68618
▁bác	-8.68859
▁hlv	-8.69898
▁làng	-8.70191
▁nuôi	-8.70254
ch	-8.70393
▁khỏe	-8.70632
▁cận	-8.71168
▁khối	-8.71179
f	-8.716
▁nghề	-8.71654
▁ổn	-8.71836
▁x	-8.72015
▁thôn	-8.72446
?	-8.72516
▁thăm	-8.72547
▁xanh	-8.73134
▁hưng	-8.73188
▁xung	-8.7333
▁sóng	-8.73386
▁chuyến	-8.73527
▁đích	-8.73792
▁thơ	-8.73851
▁quán	-8.73929
▁trưng	-8.74852
▁vinh	-8.7508
▁mưa	-8.75364
▁chữ	-8.75522
▁sớm	-8.75703
▁cánh	-8.75766
▁bào	-8.75901
er	-8.75902
▁giác	-8.76797
▁siêu	-8.76843
▁cân	-8.77108
▁đuwocj	-8.77194
▁băng	-8.77602
▁suy	-8.77954
▁tri	-8.78432
▁màn	-8.78533
",	-8.78607
▁lá	-8.78826
▁nóng	-8.79041
▁dưỡng	-8.7908
▁tránh	-8.79093
▁trắng	-8.79382
▁on	-8.79564
▁trấn	-8.79985
hcm	-8.80068
▁thẳng	-8.80113
▁quần	-8.8038
**	-8.80471
▁may	-8.80493
▁đáp	-8.80739
▁tạm	-8.80851
▁đột	-8.80864
▁chu	-8.80878
▁trú	-8.81014
▁lựa	-8.8108
▁nghỉ	-8.81085
▁ly	-8.81247
▁thiệt	-8.81427
▁ủng	-8.816
ra	-8.82298
▁truy	-8.82611
▁mong	-8.82713
▁sửa	-8.82737
▁khúc	-8.82873
▁nghĩ	-8.83128
▁rừng	-8.83224
▁khánh	-8.83346
▁thập	-8.83469
▁nổ	-8.83606
▁rút	-8.83881
▁tắc	-8.84291
▁mềm	-8.84397
▁ha	-8.84565
▁chóng	-8.84585
▁hấp	-8.84744
▁vui	-8.8493
▁cầm	-8.8494
▁cũ	-8.85219
▁máu	-8.85352
▁tầm	-8.8554
▁tỏ	-8.85731
▁phê	-8.85736
▁cam	-8.85982
▁bày	-8.86076
▁thác	-8.86176
▁as	-8.86255
▁biện	-8.86571
▁nẵng	-8.86796
▁gắn	-8.86799
▁it	-8.8685
▁ví	-8.87156
▁sứ	-8.87444
▁lỗi	-8.87959
▁ro	-8.87981
▁tả	-8.88057
▁cháy	-8.88333
▁suốt	-8.88339
in	-8.89231
th	-8.89285
▁võ	-8.89324
▁km	-8.89548
▁bật	-8.89581
▁thụ	-8.89793
▁re	-8.8994
▁nhẹ	-8.90404
▁vĩnh	-8.90592
▁liệt	-8.90765
▁syria	-8.90848
▁ngăn	-8.91166
▁nhiễm	-8.9128
▁chắc	-8.91393
▁phan	-8.91469
▁tuyệt	-8.91567
▁ích	-8.92015
▁dần	-8.92196
▁thậm	-8.92292
▁khảo	-8.92307
▁tô	-8.92856
▁lượt	-8.93079
▁chứa	-8.93084
▁điển	-8.93195
▁hôn	-8.93261
▁sắp	-8.93365
▁new	-8.9361
▁mẽ	-8.93835
▁nhớ	-8.94001
▁for	-8.9424
▁tờ	-8.9454
▁vẻ	-8.94746
▁bão	-8.94772
▁w	-8.94858
▁kính	-8.9488
▁tuấn	-8.9498
▁thiệu	-8.95299
▁na	-8.9544
▁tỉ	-8.95965
▁cắt	-8.95992
▁thú	-8.96184
▁mạc	-8.96214
▁sẵn	-8.96773
▁cua	-8.96857
▁giết	-8.96905
▁phức	-8.97448
▁khóa	-8.9755
▁vn	-8.97551
▁chỗ	-8.98182
▁vong	-8.98206
▁phận	-8.98342
▁&	-8.98349
▁vững	-8.9867
▁mạch	-8.98893
▁uống	-8.98985
▁cựu	-8.99239
▁chẳng	-8.9937
▁chăm	-8.99597
▁lạnh	-8.99686
▁ngắn	-8.99813
an	-8.9999
▁đen	-9.00143
▁dũng	-9.00406
▁tĩnh	-9.00541
▁đàm	-9.00652
▁dây	-9.00679
▁thánh	-9.00738
▁dư	-9.01246
▁huấn	-9.01305
▁đương	-9.01305
▁phán	-9.01323
▁sung	-9.01492
▁nỗ	-9.01508
▁quỹ	-9.01512
▁ngô	-9.01676
▁súng	-9.01938
▁be	-9.01989
▁giản	-9.02238
▁dạy	-9.02412
▁trump	-9.02789
▁cháu	-9.02825
▁chiếu	-9.02983
▁pha	-9.03001
▁kẻ	-9.03907
▁cà	-9.04038
▁hâm	-9.0408
▁nhấn	-9.04185
▁man	-9.04414
▁bờ	-9.04474
▁xu	-9.04521
▁gió	-9.04538
na	-9.04641
▁thầy	-9.04745
▁tươi	-9.04761
ma	-9.04764
▁bạc	-9.04789
▁xô	-9.05347
▁hài	-9.05474
▁cuốn	-9.05689
▁chữa	-9.05705
▁nợ	-9.05814
▁kịch	-9.05934
▁đọc	-9.06214
▁tù	-9.06354
▁đón	-9.06568
▁thỏa	-9.06655
▁tim	-9.06958
▁cấm	-9.07407
▁bắn	-9.07676
▁ngược	-9.07732
▁chúa	-9.07852
▁trồng	-9.07913
▁khám	-9.07966
▁hiến	-9.08025
le	-9.08116
re	-9.08715
▁bi	-9.0886
▁".	-9.09392
▁đòi	-9.09774
▁rau	-9.09897
▁tết	-9.09966
▁kiểu	-9.09966
▁thăng	-9.10013
▁bò	-9.10271
al	-9.1056
▁quê	-9.1059
▁thoát	-9.10807
!	-9.10923
▁bo	-9.10986
▁trào	-9.1111
▁tặng	-9.11225
▁ràng	-9.11257
▁cup	-9.11427
▁le	-9.11631
▁bối	-9.11953
▁đoán	-9.12287
một	-9.12461
▁đau	-9.12547
▁đỗ	-9.1271
▁họa	-9.12739
▁xứ	-9.12813
▁tận	-9.12851
▁niềm	-9.12917
▁thuê	-9.12921
▁thải	-9.12929
▁hơi	-9.13215
▁cai	-9.13306
▁video	-9.13526
▁bom	-9.13718
▁?	-9.13727
▁tam	-9.14061
▁nắm	-9.14062
▁san	-9.14274
▁nhắc	-9.14517
▁hè	-9.14653
▁dịp	-9.1467
▁trăm	-9.14698
▁rơi	-9.14709
▁dinh	-9.14763
▁ko	-9.1482
▁mời	-9.14844
▁league	-9.14997
▁se	-9.15107
▁chặn	-9.15245
▁chờ	-9.1552
▁rời	-9.15652
▁ẩm	-9.15782
▁mi	-9.15843
▁bốn	-9.15873
▁liền	-9.16213
nh	-9.16542
w	-9.17158
▁chợ	-9.17515
▁mắc	-9.17984
▁sóc	-9.18048
▁bền	-9.18181
▁kê	-9.18289
▁chặt	-9.18633
ta	-9.18663
▁xương	-9.19093
▁lẽ	-9.1911
▁kiên	-9.19207
▁khắp	-9.19562
▁vân	-9.1977
▁kháng	-9.19899
▁đám	-9.20124
▁mo	-9.20203
▁sạch	-9.20233
▁thờ	-9.20497
▁lái	-9.20663
▁đem	-9.20797
▁tan	-9.20808
▁bãi	-9.20936
▁quen	-9.21038
▁thua	-9.21048
▁hủy	-9.21196
▁ngại	-9.21255
▁trữ	-9.21409
▁dừng	-9.21642
▁loạn	-9.21647
▁kém	-9.21898
▁dao	-9.22295
▁j	-9.22387
▁hãy	-9.22427
▁cát	-9.22851
▁ngon	-9.2304
▁nghèo	-9.23435
▁world	-9.235
do	-9.23536
▁ch	-9.23594
▁by	-9.24003
▁tùy	-9.2402
co	-9.2414
ne	-9.24286
▁voi	-9.24434
▁vay	-9.25079
ly	-9.25459
▁ga	-9.25695
▁at	-9.2572
▁pa	-9.25732
▁nghìn	-9.26053
▁lưới	-9.26309
es	-9.26335
▁trịnh	-9.26362
▁khuyến	-9.2639
▁chắn	-9.26769
▁gà	-9.26862
▁ngũ	-9.27001
▁lộc	-9.27299
▁sắt	-9.276
▁sài	-9.2765
▁thách	-9.27809
en	-9.27956
▁lẫn	-9.27985
▁tảng	-9.28224
▁phái	-9.28225
▁dõi	-9.28369
▁đỉnh	-9.28369
▁hạnh	-9.28523
▁bạch	-9.28662
la	-9.2879
▁chấm	-9.29074
z	-9.29222
▁tán	-9.2927
▁gắng	-9.29278
▁thiểu	-9.29381
▁bá	-9.29453
▁sàng	-9.29639
▁dàng	-9.29754
▁miễn	-9.29926
▁chứ	-9.29988
▁mu	-9.30184
▁li	-9.30269
▁kịp	-9.30277
▁tường	-9.30531
▁chinh	-9.3059
sn	-9.30738
▁tấm	-9.3074
▁đạn	-9.30755
▁cơn	-9.30831
▁sữa	-9.31065
▁ngồi	-9.31222
da	-9.31293
▁ngọt	-9.31427
▁căng	-9.3143
▁gòn	-9.31782
▁xâm	-9.31806
▁iran	-9.32587
to	-9.32721
▁me	-9.32752
ca	-9.32843
▁giàu	-9.32969
▁kêu	-9.33116
▁ve	-9.33261
▁đe	-9.33263
▁kho	-9.33381
▁hoá	-9.33398
▁thọ	-9.33501
▁sợ	-9.33514
▁kênh	-9.33598
▁giáp	-9.33962
▁đền	-9.33981
▁nguyện	-9.34085
▁trích	-9.34093
▁thơm	-9.34162
ba	-9.34194
▁đinh	-9.34325
▁kèm	-9.34326
▁nửa	-9.34414
▁lạ	-9.34633
▁ho	-9.34656
▁trừ	-9.34865
người	-9.3493
ri	-9.34937
&	-9.35233
▁ii	-9.35245
▁trà	-9.35248
▁hàm	-9.35307
▁mê	-9.35674
▁giam	-9.36004
▁lối	-9.36139
▁cảng	-9.36139
tt	-9.36158
▁uy	-9.36354
▁cặp	-9.36491
▁chạm	-9.36522
▁dọa	-9.36955
▁đâu	-9.37167
▁cờ	-9.37329
▁te	-9.37388
▁mì	-9.37525
▁góc	-9.3784
▁bột	-9.37861
▁cướp	-9.37918
te	-9.37958
▁diệt	-9.38093
man	-9.3844
▁đo	-9.38477
▁tphcm	-9.38514
▁nêu	-9.38637
▁hán	-9.38938
▁chở	-9.38963
▁thai	-9.38988
▁mưu	-9.39083
▁dứt	-9.39145
▁túy	-9.39225
▁chấn	-9.39372
▁tá	-9.39488
ro	-9.39538
▁si	-9.39783
▁tụ	-9.39849
▁iphone	-9.39878
▁che	-9.39882
▁than	-9.39948
▁chục	-9.40036
▁trùng	-9.40041
▁phật	-9.40145
▁chụp	-9.40223
▁trạm	-9.40362
▁huyết	-9.40382
▁apple	-9.40412
▁mừng	-9.4049
▁thuyền	-9.40597
▁chảy	-9.40633
▁ngừng	-9.40784
di	-9.40955
▁no	-9.41076
▁đồn	-9.41189
▁pháo	-9.41195
▁khuôn	-9.41217
▁duyệt	-9.41239
▁ngủ	-9.41245
▁bạo	-9.41288
▁khiển	-9.41309
▁cac	-9.41448
▁buôn	-9.41475
▁chậm	-9.4155
▁hào	-9.41711
▁đoạt	-9.41755
▁gỗ	-9.41759
hà	-9.419
▁chút	-9.41991
▁ấm	-9.42086
▁lam	-9.42092
▁tệ	-9.42136
▁bậc	-9.42197
▁album	-9.42313
đ	-9.43048
▁đợt	-9.43169
▁hoảng	-9.43396
▁huyền	-9.43415
▁đẳng	-9.43568
▁po	-9.436
li	-9.4367
▁ka	-9.43708
▁cậu	-9.43718
▁viễn	-9.43896
▁phước	-9.44034
▁nhuận	-9.44163
▁xấu	-9.44292
▁ẩn	-9.4432
▁giảng	-9.44782
▁that	-9.44884
▁gd	-9.44943
▁đuổi	-9.44973
▁city	-9.44989
▁or	-9.45179
▁web	-9.4531
▁|	-9.46014
ông	-9.46018
▁lắng	-9.46283
▁gạo	-9.46384
▁ar	-9.46594
▁tung	-9.46805
▁lào	-9.46951
trong	-9.4716
▁bùi	-9.47274
▁tang	-9.47423
▁khấu	-9.47628
▁mái	-9.47737
▁hang	-9.4774
▁khích	-9.47782
▁sỹ	-9.47896
▁cú	-9.48115
▁gương	-9.48456
▁vé	-9.4854
▁tắt	-9.48821
▁cong	-9.48852
de	-9.48865
▁canh	-9.48927
▁muối	-9.49069
▁khô	-9.49084
▁go	-9.49153
▁cốt	-9.49203
▁chín	-9.49249
▁nhung	-9.4945
▁from	-9.49537
các	-9.49692
▁hcm	-9.5
ck	-9.50042
▁thạch	-9.50374
▁khổ	-9.50896
▁huế	-9.50943
▁van	-9.50954
);	-9.51031
▁bến	-9.51078
▁vỡ	-9.51343
▁dong	-9.51429
▁ngang	-9.51562
▁are	-9.51934
▁united	-9.52088
▁trinh	-9.52109
▁chuỗi	-9.52128
▁lũ	-9.52259
▁đỡ	-9.52263
▁khẩn	-9.52385
▁gi	-9.52478
▁ri	-9.5255
lo	-9.52654
▁thụy	-9.52798
▁giọng	-9.52824
▁ung	-9.52947
▁sốt	-9.53162
▁hứng	-9.53197
▁tiềm	-9.53247
▁chua	-9.53292
▁trại	-9.5346
▁real	-9.53461
▁dậy	-9.53477
▁nấu	-9.53707
▁iraq	-9.53767
▁###	-9.53814
▁mát	-9.53867
▁chủng	-9.53995
▁sáu	-9.54083
▁đậm	-9.54117
▁lỗ	-9.54136
▁bề	-9.54418
):**	-9.54469
▁khoán	-9.54481
▁thuần	-9.54778
▁ngầm	-9.54796
▁tóm	-9.5481
▁with	-9.54932
▁cứng	-9.54938
▁lạp	-9.55504
▁loan	-9.55507
▁vườn	-9.55558
▁nét	-9.5564
▁thang	-9.55918
▁đh	-9.55986
▁chào	-9.55991
▁vỏ	-9.56044
không	-9.56092
▁q	-9.56185
▁lính	-9.5621
▁hoang	-9.56513
▁hằng	-9.5652
▁rối	-9.56538
▁clb	-9.56538
at	-9.56543
▁ti	-9.56592
▁ngàn	-9.56601
▁bồi	-9.56629
▁cương	-9.56681
▁vĩ	-9.5687
▁xạ	-9.56939
▁lu	-9.56985
▁th	-9.57192
▁cản	-9.57199
theo	-9.57254
internet	-9.57545
▁thpt	-9.57631
▁mơ	-9.57728
▁tổn	-9.57829
vi	-9.57986
có	-9.58088
ts	-9.58117
▁gấp	-9.58155
▁thù	-9.58378
ha	-9.58513
▁pro	-9.58626
▁nhi	-9.58719
▁đáo	-9.58791
▁phu	-9.59104
▁trốn	-9.59232
▁israel	-9.5933
▁tùng	-9.5961
▁ép	-9.59646
▁tước	-9.599
▁truyện	-9.5991
▁bè	-9.59933
):	-9.60175
▁hỏa	-9.60309
▁thầu	-9.60429
▁đợi	-9.60617
▁tứ	-9.60883
▁tháp	-9.61383
▁tách	-9.61445
▁dn	-9.61561
us	-9.61797
▁triết	-9.61847
▁tàng	-9.61869
▁nộp	-9.62158
▁am	-9.62164
▁rượu	-9.62178
▁chàng	-9.62398
▁cãi	-9.62403
▁thẻ	-9.6289
is	-9.62937
đt	-9.63175
▁my	-9.6371
▁chối	-9.63829
▁cúp	-9.63869
stan	-9.63888
▁điệu	-9.64043
▁mùi	-9.6408
▁gỡ	-9.64246
▁trục	-9.64257
▁ni	-9.64453
▁thảm	-9.64632
▁dáng	-9.64706
▁lẻ	-9.64787
on	-9.64825
▁thước	-9.64855
the	-9.64942
%.	-9.64951
▁khung	-9.65013
▁hoài	-9.65125
▁sàn	-9.65179
▁nh	-9.65402
▁lãi	-9.65581
▁hi	-9.65755
▁ống	-9.65793
▁cưới	-9.65795
▁mấy	-9.65912
▁thôi	-9.65922
▁đặng	-9.65941
▁dị	-9.66002
▁z	-9.6602
▁khái	-9.66036
▁tt	-9.66065
▁non	-9.66069
j	-9.66163
▁chùa	-9.66263
ry	-9.66265
▁bồ	-9.6633
son	-9.66427
năm	-9.6658
facebook	-9.66906
▁nhượng	-9.67164
▁top	-9.67305
▁fa	-9.67332
▁sea	-9.67334
▁lãm	-9.67562
▁mot	-9.67797
▁nhan	-9.67839
▁thịnh	-9.67999
▁men	-9.68166
▁bu	-9.68223
▁lọc	-9.68337
▁tóc	-9.68369
▁el	-9.684
▁dày	-9.68678
▁đậu	-9.68699
sa	-9.6874
▁đai	-9.68785
▁huỳnh	-9.68865
▁huống	-9.68885
▁nhĩ	-9.68907
▁hiếm	-9.68971
ga	-9.68972
▁mệnh	-9.69029
con	-9.69122
▁rác	-9.69127
▁lang	-9.69132
▁en	-9.6932
▁paris	-9.69341
▁trật	-9.69465
un	-9.6957
▁=	-9.69615
▁tú	-9.69675
▁hề	-9.69827
ampuchia	-9.69944
▁trầm	-9.69986
no	-9.70145
▁vết	-9.7021
▁sạn	-9.70375
▁lành	-9.70531
▁trăng	-9.70879
▁hẹn	-9.70931
▁gói	-9.70952
se	-9.71416
lippines	-9.71444
il	-9.71548
▁duoc	-9.71587
donesia	-9.71608
▁nướng	-9.71735
▁khổng	-9.71771
▁xong	-9.71836
or	-9.71909
▁đĩa	-9.72012
ti	-9.72225
▁đèn	-9.72367
▁xăng	-9.7238
▁nỗi	-9.72385
mi	-9.7247
▁york	-9.72504
▁kh	-9.72528
▁nhảy	-9.7255
▁cột	-9.7262
▁park	-9.72649
▁tnhh	-9.73084
▁cỏ	-9.73147
▁tỏa	-9.73296
▁tống	-9.73333
ngày	-9.73432
▁ki	-9.73474
▁đứa	-9.7348
malaysia	-9.7378
▁não	-9.73854
ka	-9.73865
▁chim	-9.73985
▁quà	-9.74103
▁nhánh	-9.74104
ton	-9.74293
▁ghế	-9.74389
▁chốt	-9.74608
."	-9.74889
▁điệp	-9.74956
▁nai	-9.7511
▁trộm	-9.75197
▁ngập	-9.75418
▁phỏng	-9.75616
▁kiều	-9.75862
me	-9.75944
▁bữa	-9.7605
▁hiếu	-9.76082
pa	-9.76101
▁im	-9.76264
▁thận	-9.76348
▁kia	-9.76349
▁vạn	-9.76506
▁chánh	-9.76551
▁đ	-9.76608
▁games	-9.76764
▁sôi	-9.76811
▁one	-9.76936
▁thuẫn	-9.76982
▁his	-9.77381
▁pe	-9.77502
▁đốt	-9.77568
▁ong	-9.77598
▁cười	-9.77831
▁lăng	-9.77869
▁donald	-9.78101
▁buồn	-9.78218
▁rãi	-9.78351
▁sánh	-9.78456
ư	-9.78805
▁tần	-9.78923
▁tuyết	-9.79103
ation	-9.7932
công	-9.79511
▁tàn	-9.79562
▁săn	-9.7969
▁mỏ	-9.7972
▁béo	-9.79722
▁quỳnh	-9.79921
▁lắp	-9.80046
▁thép	-9.8007
▁madrid	-9.80092
st	-9.80098
▁trứng	-9.80164
ingapore	-9.80208
▁đập	-9.80231
tp	-9.80258
▁lúa	-9.80649
▁cu	-9.80752
▁ngã	-9.80759
▁ảo	-9.80798
▁mực	-9.81003
▁ven	-9.8103
▁hoà	-9.81119
▁xưa	-9.81419
ar	-9.81598
▁kiệm	-9.81701
hington	-9.8174
▁úc	-9.81862
▁canada	-9.82076
▁bảy	-9.82088
bộ	-9.82108
và	-9.82165
▁túi	-9.82201
▁lồ	-9.82208
▁mây	-9.8223
▁ts	-9.82303
▁dọc	-9.82599
▁tròn	-9.82601
▁tre	-9.82705
▁vang	-9.82816
▁den	-9.82825
▁phấn	-9.82929
▁eu	-9.83145
như	-9.83287
▁es	-9.83297
▁hảo	-9.83579
▁chúc	-9.83651
▁quyển	-9.83654
▁lừa	-9.83704
▁hứa	-9.83765
▁gu	-9.83791
▁john	-9.83849
▁game	-9.83989
▁google	-9.84005
từ	-9.84339
▁vo	-9.84375
▁hoan	-9.84498
▁tuân	-9.84709
▁khen	-9.84762
nchester	-9.84827
▁ái	-9.84928
▁mc	-9.85011
▁duyên	-9.85058
▁huynh	-9.85059
▁mãi	-9.85097
▁điền	-9.85139
▁ơn	-9.85203
▁chăn	-9.85224
go	-9.85283
▁trúng	-9.85613
▁car	-9.85829
▁kg	-9.85927
▁ngưỡng	-9.86119
el	-9.86208
▁luân	-9.86391
▁bar	-9.86404
▁chẽ	-9.86466
▁bia	-9.86493
▁she	-9.86646
▁tràn	-9.8677
▁ne	-9.86783
va	-9.87329
▁her	-9.87398
▁lò	-9.87484
mo	-9.88078
▁ru	-9.88157
▁son	-9.88188
▁hổ	-9.88277
▁dàn	-9.88366
sh	-9.88367
▁pin	-9.88472
▁ngư	-9.88688
▁fan	-9.8886
▁ném	-9.88871
cho	-9.89086
kh	-9.89097
▁mâu	-9.89251
▁show	-9.89266
▁pi	-9.89338
▁nhịp	-9.89584
▁inter	-9.89643
▁đâm	-9.89644
▁thiệp	-9.89723
▁trông	-9.89752
▁hiển	-9.89774
▁chelsea	-9.89881
▁tand	-9.89906
▁dường	-9.89926
▁bát	-9.8994
gi	-9.89975
▁phe	-9.90045
▁khôi	-9.90057
▁gen	-9.90107
em	-9.90124
▁già	-9.90215
▁rủi	-9.9022
▁ả	-9.90507
▁mãn	-9.90631
▁hư	-9.90742
▁nắng	-9.90745
ic	-9.90792
▁ke	-9.90832
▁hỗn	-9.90844
id	-9.90861
ers	-9.90892
chi	-9.91033
xã	-9.91101
ine	-9.91202
▁lợn	-9.91362
▁tháo	-9.91494
▁vợt	-9.91505
▁giỏi	-9.9186
▁hô	-9.92071
▁chiêu	-9.92432
▁miệng	-9.92466
▁xóm	-9.926
▁nàng	-9.92604
ian	-9.92658
▁vây	-9.92671
▁ngụ	-9.9272
▁thả	-9.92782
▁hầm	-9.929
▁sổ	-9.92916
▁sót	-9.92927
▁vời	-9.92989
▁ng	-9.93081
▁trừng	-9.93242
▁hỏng	-9.93269
▁sút	-9.93333
▁gợi	-9.93401
▁túc	-9.93696
▁đan	-9.93733
▁kín	-9.93903
▁lãng	-9.93936
▁dâm	-9.94096
▁hộp	-9.9413
▁nguoi	-9.94357
▁hiền	-9.94413
ke	-9.94495
▁tật	-9.94569
▁trộn	-9.94596
▁cổng	-9.94684
'.	-9.94696
et	-9.9474
▁rắn	-9.94917
▁xay	-9.94985
▁viêm	-9.95411
▁hung	-9.95415
▁gọn	-9.95883
▁mũi	-9.96
▁tr	-9.96198
▁gan	-9.96233
▁xế	-9.96345
▁euro	-9.96418
▁vịnh	-9.9648
▁+	-9.96715
▁st	-9.96759
▁xưng	-9.97113
▁bốc	-9.97156
▁treo	-9.97157
▁fi	-9.97165
▁đt	-9.97183
▁hồn	-9.97197
▁khoáng	-9.97264
nam	-9.97268
▁khong	-9.97283
▁ngoái	-9.97333
▁nhưỡng	-9.97635
▁sen	-9.97636
ni	-9.97705
▁củng	-9.97718
▁lô	-9.97905
▁they	-9.97906
▁[	-9.9793
▁mười	-9.98148
▁tro	-9.98214
▁chó	-9.98237
▁giây	-9.98246
▁bùng	-9.98429
▁dan	-9.98561
ki	-9.9858
▁trống	-9.98754
▁ph	-9.98878
▁bê	-9.98941
▁mét	-9.99075
▁quên	-9.99249
trung	-9.99277
ustralia	-9.9935
▁soạn	-9.99361
▁pv	-9.99458
hampions	-9.99592
▁cụm	-9.99822
▁lạm	-9.99986
▁nhũng	-10.0001
▁dược	-10.0001
▁ruột	-10.0012
▁tuệ	-10.0015
những	-10.0015
▁rào	-10.0032
pe	-10.0035
▁ngự	-10.0042
▁chép	-10.0071
▁lõi	-10.0083
▁leo	-10.0087
▁hẳn	-10.01
▁ja	-10.0112
▁vẽ	-10.0112
▁mảnh	-10.0137
national	-10.0138
▁nhãn	-10.0156
▁đới	-10.0163
▁has	-10.0165
▁đam	-10.0169
▁mầm	-10.018
q	-10.0189
ú	-10.0194
é	-10.0202
▁xinh	-10.0214
▁mắn	-10.0216
▁nở	-10.0245
▁rửa	-10.0255
▁làn	-10.0257
tion	-10.0269
anh	-10.0288
▁bây	-10.0308
▁cất	-10.0327
be	-10.0331
▁rập	-10.0339
os	-10.0349
▁dâu	-10.0355
▁iii	-10.0356
”.	-10.0358
▁cp	-10.0381
▁xóa	-10.0389
▁kì	-10.0396
ol	-10.0398
ot	-10.0402
▁mau	-10.0431
▁tcn	-10.0448
ia	-10.0449
phone	-10.0478
▁mar	-10.0481
▁un	-10.0483
▁mông	-10.0489
▁huệ	-10.0489
▁bù	-10.0508
▁thở	-10.0513
▁tôm	-10.0517
▁clip	-10.052
▁ngựa	-10.0533
▁this	-10.0558
▁tám	-10.0558
huyện	-10.0569
▁bó	-10.0594
▁lệch	-10.0597
▁chuyền	-10.0609
▁ám	-10.061
▁er	-10.0612
▁lầm	-10.0614
ko	-10.0617
▁đệ	-10.0631
▁wi	-10.0653
▁cống	-10.0662
▁giật	-10.0671
sau	-10.0677
▁tha	-10.068
▁pu	-10.0692
▁ác	-10.0706
▁xứng	-10.0742
ge	-10.0768
▁kiệt	-10.0769
▁ân	-10.0769
ce	-10.0774
ja	-10.0774
▁per	-10.0798
▁hối	-10.0802
as	-10.0802
nd	-10.0807
▁arsenal	-10.0817
▁lỏng	-10.0826
▁phẫu	-10.083
▁dã	-10.083
▁xi	-10.0837
▁hu	-10.0839
▁ge	-10.084
chủ	-10.0857
fi	-10.0866
▁tiếc	-10.0867
fa	-10.0883
▁mắm	-10.0885
▁sáp	-10.089
ở	-10.089
▁lọt	-10.0936
(	-10.0937
▁ad	-10.0937
▁giấu	-10.0944
▁ky	-10.095
▁london	-10.0978
▁virus	-10.0979
▁khuẩn	-10.0979
▁dau	-10.1042
▁mỏng	-10.1072
▁vu	-10.1081
▁trưa	-10.1087
▁doi	-10.1101
net	-10.1112
▁not	-10.1118
▁oxy	-10.112
▁phượng	-10.115
vn	-10.1173
nay	-10.119
▁khoong	-10.1205
▁táo	-10.121
▁viet	-10.121
là	-10.1235
▁lông	-10.1247
▁cẩm	-10.1253
▁chìm	-10.1268
▁ớt	-10.127
▁us	-10.1294
▁day	-10.1306
bi	-10.1307
su	-10.1317
▁also	-10.1318
po	-10.1321
▁thoái	-10.1323
tan	-10.133
▁dai	-10.1368
▁kiêm	-10.1374
ad	-10.1388
▁trôi	-10.1404
ong	-10.1408
ter	-10.1415
land	-10.1449
▁nhắn	-10.1459
▁khôgn	-10.146
▁gián	-10.1465
▁ngọn	-10.1479
ct	-10.1487
)-	-10.1492
▁ku	-10.1503
▁camera	-10.1509
▁cơm	-10.151
mỹ	-10.1515
▁mon	-10.1537
▁dang	-10.1549
sự	-10.1554
bo	-10.1571
▁heo	-10.1593
▁au	-10.16
▁ham	-10.1604
▁sợi	-10.1606
▁củ	-10.1611
▁phiến	-10.1618
▁samsung	-10.1623
ion	-10.163
▁mốc	-10.1645
▁quế	-10.1656
▁vietnam	-10.1663
▁miếng	-10.1715
▁dắt	-10.1734
▁giấc	-10.175
▁vắng	-10.1757
ster	-10.1768
▁bách	-10.1772
▁min	-10.1774
▁rạng	-10.1782
▁tiệc	-10.1787
▁nho	-10.179
▁tốn	-10.1792
▁chặng	-10.1793
tin	-10.1796
ví	-10.1804
▁bếp	-10.181
za	-10.1814
so	-10.1815
ve	-10.1816
▁were	-10.1843
▁nhựa	-10.1862
được	-10.1868
▁james	-10.1889
▁lee	-10.1901
ll	-10.1906
▁lưng	-10.1925
▁côn	-10.1925
▁lặng	-10.1929
▁lân	-10.1931
▁\	-10.1942
▁afghani	-10.1949
%,	-10.1968
ya	-10.1988
▁đạp	-10.2026
▁cắp	-10.2051
▁mạo	-10.2052
tr	-10.206
▁mộc	-10.2063
▁noi	-10.2069
▁ben	-10.2075
sinh	-10.2083
ut	-10.2099
cp	-10.2105
▁mù	-10.2107
um	-10.2116
▁móng	-10.2118
rgentina	-10.2134
▁ngãi	-10.2146
▁nhàng	-10.2154
▁bụi	-10.2173
▁cm	-10.2173
▁asean	-10.2179
▁ấp	-10.2187
▁khuyết	-10.2211
▁sắm	-10.2218
▁nồng	-10.2233
▁hoi	-10.2236
▁han	-10.2248
▁tiêm	-10.2254
lan	-10.2257
▁brazil	-10.2259
ir	-10.226
▁bám	-10.2276
▁đừng	-10.2306
▁cty	-10.2316
▁say	-10.2326
▁people	-10.2332
▁lắm	-10.2342
▁liêm	-10.2342
▁hòn	-10.237
▁george	-10.2371
▁vẹn	-10.2382
đã	-10.2384
▁wa	-10.2393
▁bún	-10.2394
ber	-10.2396
▁lật	-10.2396
iverpool	-10.2399
▁david	-10.2403
▁lưỡng	-10.2421
▁sh	-10.244
với	-10.2447
]	-10.2453
arcelona	-10.2457
▁rẻ	-10.2458
▁nề	-10.2458
icrosoft	-10.2466
▁rà	-10.2474
▁lậu	-10.2475
▁cháo	-10.249
▁bỉ	-10.2516
của	-10.2523
▁lát	-10.2529
▁ireland	-10.2537
▁nd	-10.2537
▁smart	-10.2542
▁lão	-10.2556
▁răng	-10.256
ard	-10.2564
ron	-10.2576
▁bái	-10.2582
les	-10.2587
▁dội	-10.2588
▁xoay	-10.2611
▁hẹp	-10.2617
per	-10.2618
▁thạnh	-10.2628
▁hạm	-10.2659
▁qu	-10.2659
phó	-10.2663
▁dãy	-10.2665
▁za	-10.2672
▁first	-10.2701
▁cỡ	-10.2704
▁giày	-10.2706
▁đồi	-10.271
▁tráng	-10.2711
▁bơi	-10.2713
km	-10.2714
▁nhiêu	-10.272
ment	-10.2721
▁đắk	-10.2728
▁khiếu	-10.2733
▁gtvt	-10.2735
▁ngừa	-10.2747
▁lui	-10.2759
▁bụng	-10.2772
▁khứ	-10.2787
▁bớt	-10.281
▁olympic	-10.2817
▁bot	-10.2845
▁tọa	-10.2877
ph	-10.2879
▁ci	-10.2886
▁triệt	-10.2888
▁ghép	-10.2893
▁xả	-10.2894
▁qatar	-10.2933
▁dâng	-10.294
▁dính	-10.2941
',	-10.2946
▁michael	-10.2956
lu	-10.2964
▁mv	-10.2993
▁jo	-10.3002
▁sụp	-10.301
▁ức	-10.3014
▁tia	-10.3019
▁had	-10.3053
▁ya	-10.3069
▁đãi	-10.307
việt	-10.308
▁khát	-10.3083
▁vải	-10.3086
▁đựng	-10.3094
▁ce	-10.3109
ov	-10.3114
▁ranh	-10.3139
è	-10.314
it	-10.3158
▁pho	-10.3168
tôi	-10.3175
▁ngộ	-10.3176
▁xá	-10.318
tu	-10.3181
▁đắc	-10.3186
▁ronaldo	-10.3188
▁milan	-10.319
▁lấn	-10.3194
du	-10.3215
▁móc	-10.323
▁khuyên	-10.3231
▁thô	-10.3235
▁liêu	-10.3245
▁dám	-10.3245
▁len	-10.3246
▁đôn	-10.3254
der	-10.3266
▁ju	-10.3273
▁hưu	-10.3273
ted	-10.3294
▁tím	-10.3309
▁tiễn	-10.3315
▁khóc	-10.3317
▁windows	-10.3323
▁com	-10.3329
bu	-10.3334
▁giáng	-10.3334
nhà	-10.3354
▁vở	-10.3358
khoảng	-10.3372
▁thoải	-10.3381
▁đắt	-10.3382
▁khoảnh	-10.3384
▁thùng	-10.3385
▁ôm	-10.3399
▁!	-10.342
com	-10.3428
▁hđnd	-10.3434
ty	-10.3437
▁yến	-10.3443
▁thong	-10.3447
▁lở	-10.3456
che	-10.3477
▁putin	-10.349
▁ac	-10.3511
▁mỏi	-10.3556
▁phở	-10.357
▁chiêm	-10.3595
▁thợ	-10.3595
▁air	-10.3599
▁lữ	-10.3603
▁dời	-10.3611
▁đói	-10.3614
▁niêm	-10.3616
▁ruộng	-10.3631
▁màng	-10.3638
▁cay	-10.364
▁nhì	-10.3649
pakistan	-10.368
▁nhạy	-10.368
▁news	-10.3688
▁protein	-10.3691
▁nu	-10.3693
▁thói	-10.37
▁premier	-10.3714
▁mệt	-10.3717
▁hò	-10.3735
▁bông	-10.3743
▁but	-10.375
▁rồng	-10.3766
▁have	-10.377
▁trọn	-10.3774
▁mỡ	-10.3775
▁cửu	-10.3795
▁sưu	-10.3808
▁quyến	-10.3818
▁ukraine	-10.3823
▁ôn	-10.383
▁quét	-10.3831
ho	-10.3835
▁group	-10.3844
▁all	-10.3854
▁chừng	-10.3857
▁ôtô	-10.3861
lifornia	-10.3869
wa	-10.3886
▁moi	-10.39
▁dò	-10.3901
▁bút	-10.3915
▁nang	-10.3952
▁ngợi	-10.396
▁nhã	-10.3961
▁thùy	-10.3963
▁cự	-10.3966
▁xưởng	-10.3973
eu	-10.3977
▁star	-10.3994
▁ổ	-10.3999
▁ver	-10.4
▁nút	-10.4003
▁csgt	-10.4024
▁gay	-10.4036
▁váy	-10.4042
▁hoãn	-10.4057
▁taxi	-10.4061
▁mặn	-10.407
▁miếu	-10.4083
▁then	-10.4087
▁os	-10.4091
▁ngạc	-10.4091
tra	-10.4092
ul	-10.4102
▁sam	-10.4113
▁dạ	-10.4115
ji	-10.4148
▁vươn	-10.4151
▁which	-10.4164
khi	-10.4165
▁mịn	-10.4177
▁who	-10.4184
ner	-10.4185
▁cap	-10.4193
▁đầm	-10.4202
▁khói	-10.4208
▁giãn	-10.4219
▁sc	-10.4227
▁ưa	-10.4233
ci	-10.424
thành	-10.4244
▁kem	-10.4247
ảnh	-10.425
▁khoe	-10.4259
ê	-10.4259
▁kông	-10.4264
▁ukraina	-10.4267
▁huân	-10.4271
▁nhơn	-10.4281
▁dập	-10.4289
▁múa	-10.4293
▁cđ	-10.4294
▁mảng	-10.4298
▁bọn	-10.4309
ai	-10.4315
▁tren	-10.4317
ớ	-10.4318
▁mậu	-10.4323
▁truong	-10.4324
▁tắm	-10.4332
▁paul	-10.4348
▁lôi	-10.4355
▁giận	-10.4362
▁khê	-10.4369
▁nấm	-10.4384
tor	-10.4386
ang	-10.4392
▁mat	-10.4393
ku	-10.4397
▁đoan	-10.4403
▁mexico	-10.4403
▁tựu	-10.4408
▁cưỡng	-10.4415
▁obama	-10.4415
▁hien	-10.4419
▁vao	-10.4421
▁thâm	-10.4428
ak	-10.443
▁phô	-10.4449
▁rỡ	-10.4451
▁bàng	-10.4463
vo	-10.4496
▁cậy	-10.4512
▁gìn	-10.452
▁dịu	-10.4521
ran	-10.4521
ley	-10.4526
▁phế	-10.4528
▁lấp	-10.4543
▁úy	-10.4543
▁miêu	-10.4544
đại	-10.4555
▁youtube	-10.4561
▁ji	-10.4565
ó	-10.457
á	-10.4578
▁ber	-10.4583
▁dải	-10.4584
▁bổng	-10.4587
▁west	-10.4595
▁đằng	-10.4597
▁je	-10.4608
tháng	-10.461
▁ex	-10.4611
oc	-10.4617
▁muộn	-10.4619
▁cáp	-10.4622
am	-10.4623
▁music	-10.4625
american	-10.4633
kg	-10.4639
▁tour	-10.4649
▁ap	-10.465
▁khống	-10.4652
si	-10.4655
ity	-10.466
▁ia	-10.4671
▁tv	-10.4676
▁nhẫn	-10.4677
▁luồng	-10.4678
min	-10.4678
▁nồi	-10.4683
▁đấy	-10.47
▁gánh	-10.4702
▁mạn	-10.4708
tỉnh	-10.4709
tức	-10.4712
▁tạ	-10.4736
▁galaxy	-10.474
▁tn	-10.4741
ô	-10.4744
▁phùng	-10.4745
▁fifa	-10.475
▁băm	-10.477
▁charles	-10.4772
▁shi	-10.4774
quận	-10.4777
▁toi	-10.4782
ơ	-10.4787
▁ốc	-10.479
▁trội	-10.4795
▁trượt	-10.48
▁there	-10.4804
▁bích	-10.4809
▁cẩn	-10.481
▁robert	-10.482
▁cài	-10.4822
quảng	-10.4825
▁rang	-10.4826
▁buýt	-10.4827
▁nhầm	-10.4836
▁bin	-10.4838
ud	-10.4846
▁thám	-10.485
▁kon	-10.4851
▁sun	-10.4872
▁dẹp	-10.4873
▁lạt	-10.4894
▁uefa	-10.4923
▁vướng	-10.4937
tiếng	-10.4938
ss	-10.4951
▁khâu	-10.4956
▁trâu	-10.497
▁xích	-10.498
▁lặp	-10.4984
▁hot	-10.4984
▁bọc	-10.5009
▁chan	-10.5027
cha	-10.503
▁we	-10.5031
▁rực	-10.504
▁ed	-10.5041
▁louis	-10.5043
▁ali	-10.5045
▁toà	-10.5055
ten	-10.5063
▁giòn	-10.5069
▁lường	-10.5073
▁vuông	-10.5083
▁cau	-10.5089
▁mượn	-10.51
▁chuột	-10.5119
▁lũy	-10.5127
alestine	-10.5138
▁tạng	-10.5142
ps	-10.5143
▁pc	-10.5146
▁nhắm	-10.5152
▁tien	-10.5154
▁đống	-10.5156
▁khơi	-10.5162
▁play	-10.5163
▁sha	-10.5199
hi	-10.5205
▁chanh	-10.5211
▁ngực	-10.5217
▁đẻ	-10.5219
▁tủ	-10.5226
▁khang	-10.5231
▁khớp	-10.5238
▁nhiếp	-10.5247
▁diệu	-10.5247
)**	-10.5249
▁lạng	-10.525
▁vỉa	-10.5252
▁nại	-10.5254
▁hop	-10.5257
▁yết	-10.5259
à	-10.5267
gu	-10.5289
▁đeo	-10.5294
▁quyên	-10.5297
one	-10.5298
▁har	-10.5306
▁bắp	-10.5343
▁red	-10.5352
▁gạch	-10.5353
▁hoành	-10.5357
▁ao	-10.537
▁nô	-10.5371
▁thuc	-10.5381
amp	-10.5384
▁mm	-10.5391
▁thự	-10.5396
▁ter	-10.5406
▁bưu	-10.5421
▁time	-10.5421
▁khoan	-10.5422
lin	-10.5431
▁don	-10.5442
▁war	-10.5447
▁dien	-10.5465
▁up	-10.5472
▁vitamin	-10.5474
▁times	-10.5477
ur	-10.5484
▁lùi	-10.5488
▁tỏi	-10.5491
we	-10.5498
thái	-10.5512
▁dệt	-10.5513
▁tho	-10.5527
▁dĩ	-10.5528
▁bội	-10.5535
▁chém	-10.5537
den	-10.5551
▁hụt	-10.5572
ting	-10.5589
▁thúy	-10.5597
▁bấy	-10.5611
▁thổi	-10.5613
▁trùm	-10.5625
▁ngột	-10.563
▁after	-10.5651
▁nn	-10.5653
▁đáy	-10.5667
▁bra	-10.5677
▁thcs	-10.5681
▁mũ	-10.5687
huế	-10.5688
tại	-10.571
▁lụt	-10.5711
▁khải	-10.5712
▁eo	-10.5729
▁gdp	-10.573
ler	-10.5734
▁iv	-10.5735
▁mổ	-10.5738
▁nhieu	-10.5746
▁quát	-10.5749
▁dưa	-10.5765
▁bơ	-10.5767
hay	-10.5775
▁lồng	-10.5778
▁manh	-10.5818
▁moscow	-10.5836
▁chip	-10.5837
▁hđqt	-10.5851
dy	-10.5856
▁bỏng	-10.5856
▁kỉ	-10.5866
▁xà	-10.5878
league	-10.5902
im	-10.591
▁viec	-10.5934
▁cúng	-10.5947
▁south	-10.595
▁dốc	-10.5955
▁nhị	-10.5959
nếu	-10.5964
▁their	-10.5964
▁khoác	-10.5988
▁láng	-10.6009
▁luc	-10.6012
▁thoa	-10.6016
ek	-10.6017
▁?-	-10.6019
▁grand	-10.602
age	-10.6022
▁khía	-10.6024
đồng	-10.6024
▁jong	-10.6025
²	-10.603
nguyên	-10.606
ban	-10.6062
▁đúc	-10.6067
▁cor	-10.6074
số	-10.6075
sk	-10.6077
wi	-10.6089
▁hon	-10.609
▁nảy	-10.6097
▁lây	-10.6104
ide	-10.6106
mon	-10.6108
tổng	-10.611
▁cốc	-10.6119
hoặc	-10.612
ver	-10.6126
▁fe	-10.6143
▁sương	-10.6144
ist	-10.6147
sen	-10.616
▁xỉ	-10.6166
▁trân	-10.6176
▁kha	-10.6188
▁gò	-10.6191
▁uỷ	-10.6192
▁reuters	-10.6197
át	-10.6206
▁apec	-10.6207
▁set	-10.6214
▁mac	-10.6214
▁pop	-10.6216
ah	-10.6222
ie	-10.6232
ru	-10.6235
▁rock	-10.6244
▁mến	-10.6257
▁khe	-10.6261
▁ten	-10.6262
scotland	-10.6265
▁sập	-10.6281
▁khiêm	-10.6284
▁thục	-10.6288
▁bế	-10.6289
▁website	-10.6291
▁live	-10.6302
▁rũ	-10.6303
▁super	-10.6307
▁vượng	-10.6313
▁won	-10.6316
▁sốc	-10.6318
▁hoại	-10.6321
▁tụng	-10.6322
▁ngạch	-10.6324
▁đứt	-10.6329
▁other	-10.633
▁mồi	-10.6337
op	-10.6343
ren	-10.6344
▁khan	-10.6345
kết	-10.6346
res	-10.6358
▁đắp	-10.636
+	-10.6372
▁°	-10.6375
▁lin	-10.6377
shi	-10.6379
▁thuong	-10.6385
▁william	-10.6401
▁ngõ	-10.6404
nt	-10.6407
men	-10.6411
*	-10.6412
▁hôi	-10.6416
▁nghiện	-10.6437
ec	-10.6445
▁nếp	-10.6446
▁thoi	-10.6465
▁đuôi	-10.6473
▁chai	-10.6489
▁phun	-10.6491
▁hiếp	-10.6495
ỏ	-10.6499
nn	-10.652
thanh	-10.6541
▁sạt	-10.6549
▁ton	-10.6559
▁king	-10.6561
▁mờ	-10.6574
▁nguyệt	-10.6582
▁nhé	-10.6583
▁los	-10.659
▁bitcoin	-10.6609
giải	-10.6619
up	-10.662
▁maria	-10.6622
▁gai	-10.6622
▁messi	-10.6626
▁trọ	-10.6626
▁chôn	-10.6627
▁pan	-10.663
vào	-10.6631
▁hanh	-10.6641
▁quoc	-10.6647
▁{	-10.665
▁cạn	-10.6682
sta	-10.6683
▁nan	-10.6701
▁myanmar	-10.6702
▁đê	-10.6705
▁tru	-10.6705
▁lũng	-10.6711
▁chay	-10.6716
▁you	-10.6723
giờ	-10.6725
▁fc	-10.6735
▁mòn	-10.6762
▁carbon	-10.6765
▁miss	-10.678
▁bón	-10.6794
ms	-10.6794
▁ồn	-10.68
▁mer	-10.6816
▁ab	-10.6824
▁rắc	-10.683
▁chênh	-10.6836
▁some	-10.6847
▁rèn	-10.6852
▁made	-10.6852
▁csđt	-10.6852
▁robot	-10.6858
▁land	-10.6863
▁út	-10.6864
▁dọn	-10.688
▁gom	-10.6884
▁hong	-10.6891
ent	-10.6897
▁suối	-10.6898
▁liều	-10.6903
▁black	-10.692
▁gắt	-10.6925
▁khéo	-10.6925
▁tị	-10.6929
nghệ	-10.6932
▁berlin	-10.6937
lia	-10.694
cn	-10.6959
▁lí	-10.696
▁bơm	-10.6961
▁phụng	-10.6967
▁mẻ	-10.6967
▁many	-10.6974
▁điêu	-10.6976
▁trạch	-10.6981
ụ	-10.6986
our	-10.6989
▁thấu	-10.7004
▁ktđt	-10.7022
▁rã	-10.7025
▁tựa	-10.7031
thời	-10.7048
▁phẳng	-10.7056
▁qui	-10.7082
▁old	-10.7083
▁sp	-10.7086
gia	-10.7089
▁zealand	-10.7101
▁lau	-10.7101
▁dỡ	-10.7108
▁é	-10.7111
▁phổi	-10.7113
▁cóc	-10.7123
▁tokyo	-10.7136
tic	-10.7136
▁vành	-10.7138
ary	-10.7141
ốt	-10.7147
▁henry	-10.7153
▁}	-10.7169
▁id	-10.7173
▁team	-10.7177
▁par	-10.7178
pi	-10.7182
▁ngưng	-10.7183
▁bat	-10.719
▁nát	-10.7191
ung	-10.7211
▁thấm	-10.7211
ou	-10.7215
▁cuba	-10.7218
▁nhat	-10.7221
fe	-10.7222
ac	-10.7223
▁yu	-10.7226
▁acid	-10.7233
▁gas	-10.7243
▁mường	-10.7259
▁mark	-10.7282
ju	-10.7301
▁sch	-10.7307
▁bận	-10.7316
▁nuoc	-10.7316
mt	-10.7318
▁tao	-10.7321
”,	-10.7324
▁vđv	-10.7334
▁quãng	-10.7339
▁thắt	-10.7339
hiện	-10.7345
bình	-10.7345
▁vội	-10.7352
▁ván	-10.7355
▁chiên	-10.7359
▁sét	-10.7372
ker	-10.7372
▁chẩn	-10.7381
▁two	-10.7399
▁when	-10.7399
▁ngơi	-10.74
▁peter	-10.7411
án	-10.7412
ns	-10.7414
▁vtv	-10.7414
▁seoul	-10.7422
▁nhở	-10.7423
xh	-10.7424
dd	-10.7425
▁tràng	-10.7428
▁lứa	-10.744
chỉ	-10.7441
▁gar	-10.7448
▁kẹt	-10.7452
han	-10.7455
tương	-10.7466
pc	-10.747
ù	-10.7475
▁lhq	-10.749
▁gũi	-10.7499
▁rạp	-10.75
▁pre	-10.7504
▁khép	-10.7505
ence	-10.7509
▁edward	-10.7517
thường	-10.752
au	-10.7523
▁tum	-10.7523
enezuela	-10.7541
▁bèn	-10.7544
▁mọc	-10.7548
▁et	-10.7558
airlines	-10.7559
mourinho	-10.7565
▁mồ	-10.7574
▁hoc	-10.7584
▁cn	-10.7587
cơ	-10.7593
▁luộc	-10.7596
mer	-10.76
▁enter	-10.7602
▁đán	-10.7609
xin	-10.7613
ish	-10.7621
▁bayern	-10.7634
ance	-10.7646
▁đòn	-10.7648
▁gãy	-10.7652
▁series	-10.7656
▁about	-10.7656
▁ê	-10.7657
▁online	-10.7657
▁tào	-10.7658
ạ	-10.7665
▁its	-10.7669
▁ang	-10.7687
▁nghiệt	-10.7687
▁mèo	-10.7688
để	-10.7689
▁del	-10.7706
rin	-10.7706
que	-10.7707
chính	-10.7708
▁dồn	-10.771
▁trắc	-10.7717
▁ngắm	-10.7729
gen	-10.7756
mar	-10.7763
▁lắk	-10.7772
▁vả	-10.7781
▁ướp	-10.7796
▁toan	-10.7796
▁ngón	-10.7801
▁vũng	-10.7806
gan	-10.7827
ther	-10.7836
juventus	-10.7839
▁vff	-10.784
▁châm	-10.7846
red	-10.7849
he	-10.7857
▁cúm	-10.7884
▁kurd	-10.7887
▁ngu	-10.7903
ee	-10.7914
sha	-10.7915
▁phat	-10.7918
▁xao	-10.7926
▁ea	-10.7933
▁lon	-10.794
▁vien	-10.7943
▁mộng	-10.7947
▁des	-10.7949
về	-10.7951
by	-10.7956
▁lụa	-10.7958
▁hắn	-10.7964
▁model	-10.7976
▁kong	-10.7986
▁fo	-10.7996
▁nato	-10.801
▁cắm	-10.8014
ờ	-10.8015
í	-10.8021
kt	-10.8031
▁bur	-10.8042
▁kar	-10.8046
điều	-10.8051
▁nguyen	-10.8055
▁sta	-10.8057
▁android	-10.8071
▁phai	-10.8071
▁gra	-10.8079
▁quỷ	-10.808
dl	-10.8083
zi	-10.8084
▁táng	-10.8087
▁north	-10.8093
▁ctcp	-10.8096
index	-10.8102
ế	-10.8104
▁khoang	-10.8117
▁ana	-10.8119
tch	-10.8123
▁khuất	-10.8134
▁nạp	-10.8136
pu	-10.814
▁tem	-10.8143
▁gs	-10.8144
▁dna	-10.815
ăm	-10.8151
▁lốp	-10.8173
mm	-10.8187
▁home	-10.8189
ef	-10.8194
▁used	-10.8196
▁more	-10.8205
,...	-10.8233
ham	-10.824
thuộc	-10.8248
▁will	-10.825
▁]	-10.8256
san	-10.8258
tri	-10.8273
▁thung	-10.8275
_	-10.8275
ica	-10.8278
▁ur	-10.8278
▁nụ	-10.8284
combank	-10.8295
▁nhí	-10.8301
▁hungary	-10.8308
▁called	-10.8314
cc	-10.8315
▁lộn	-10.8319
▁hđxx	-10.832
ven	-10.8327
▁chuối	-10.8341
▁barca	-10.8343
▁part	-10.8352
▁rẽ	-10.8354
ì	-10.8362
▁nhậm	-10.8366
quốc	-10.8367
▁đụng	-10.8392
▁known	-10.8395
ái	-10.8399
▁states	-10.84
▁out	-10.8403
▁khiêu	-10.8406
▁golf	-10.8406
ã	-10.842
▁khanh	-10.842
▁tiệm	-10.8425
▁lề	-10.8425
▁nhạt	-10.8429
▁ry	-10.843
ex	-10.843
▁bank	-10.8433
▁inch	-10.8434
ết	-10.8446
▁xơ	-10.8447
ria	-10.8452
")	-10.8464
▁đính	-10.8471
▁bì	-10.8475
▁most	-10.8476
▁axit	-10.8485
est	-10.8486
▁hinh	-10.8509
jo	-10.8511
ger	-10.8512
ab	-10.8539
▁dừa	-10.8557
▁ngẫu	-10.8557
▁fu	-10.8564
▁uber	-10.8567
▁hcv	-10.8583
▁ngụy	-10.8584
▁tom	-10.8592
mit	-10.8598
▁biet	-10.8607
▁tẩy	-10.8612
ollywood	-10.8617
▁ngặt	-10.8617
▁kitô	-10.8617
ō	-10.8623
▁xách	-10.8623
▁nêm	-10.8624
▁giường	-10.863
▁xông	-10.8631
▁over	-10.8631
▁sụt	-10.8637
▁alex	-10.8638
▁sim	-10.8642
▁bỗng	-10.8657
▁oanh	-10.8659
tz	-10.8666
▁gừng	-10.8671
qđ	-10.869
▁măng	-10.8701
▁hở	-10.8703
▁ck	-10.8704
làm	-10.8708
▁lưỡi	-10.871
▁thuỷ	-10.8712
▁neu	-10.8715
▁hãi	-10.8717
thể	-10.8722
▁state	-10.8722
ö	-10.8731
▁thiền	-10.8736
▁loa	-10.8742
oi	-10.8744
▁##	-10.8744
▁rịa	-10.8751
$	-10.8761
▁chư	-10.8782
cô	-10.8786
my	-10.8791
▁rung	-10.8793
▁seo	-10.8798
▁duong	-10.8815
tro	-10.8818
▁bong	-10.8824
ius	-10.8824
ina	-10.8827
▁nghiêng	-10.884
val	-10.8841
▁khoai	-10.8852
cs	-10.8854
▁pra	-10.8856
ice	-10.8857
off	-10.8858
áo	-10.8859
▁logic	-10.886
▁france	-10.8862
ze	-10.8868
▁cham	-10.8869
▁nã	-10.8873
und	-10.8881
vladimir	-10.8887
▁khâm	-10.8888
ant	-10.8889
▁dam	-10.8891
▁kép	-10.8902
▁vạch	-10.8902
▁hoạn	-10.8907
▁italy	-10.8915
▁ngâm	-10.8915
▁ngào	-10.8917
▁dặm	-10.8929
▁ram	-10.8931
▁von	-10.8963
▁xoáy	-10.8964
▁chè	-10.8969
▁hố	-10.8969
▁khốc	-10.8972
ls	-10.8975
▁dat	-10.898
▁big	-10.8982
tính	-10.8986
tes	-10.8996
▁khmer	-10.8998
bao	-10.9
▁đệm	-10.9
▁richard	-10.9005
ü	-10.9012
▁nén	-10.9022
▁vất	-10.9032
▁quái	-10.9037
▁sho	-10.9051
▁chuộng	-10.9053
▁quyện	-10.9063
còn	-10.9069
▁hs	-10.9072
▁ag	-10.9079
▁tuong	-10.9092
cu	-10.91
ap	-10.9101
▁thoáng	-10.9102
▁sk	-10.9136
▁sar	-10.9142
▁khoẻ	-10.9152
▁vấp	-10.9166
▁lùng	-10.9168
▁bđbp	-10.9178
▁gam	-10.9181
▁high	-10.9181
▁bbc	-10.9188
▁ay	-10.9201
▁dia	-10.9202
tar	-10.921
thi	-10.9216
▁born	-10.9218
phi	-10.9218
khu	-10.9219
ris	-10.9219
▁jackson	-10.9223
▁bể	-10.9224
▁mini	-10.9224
▁sườn	-10.9228
nhật	-10.9233
▁found	-10.9235
học	-10.9236
▁nor	-10.9237
hai	-10.9238
▁uyên	-10.9239
▁liga	-10.924
▁("	-10.9241
▁vy	-10.9242
hội	-10.9243
▁đọng	-10.9245
▁lội	-10.9265
ate	-10.9273
tên	-10.9287
▁vú	-10.9292
▁rạch	-10.9295
▁cy	-10.9295
▁nghịch	-10.9305
▁chảo	-10.9311
▁nhường	-10.9322
▁duệ	-10.9327
▁tran	-10.934
▁léo	-10.9345
▁art	-10.9359
▁rỉ	-10.9361
▁ren	-10.937
tainment	-10.9387
▁tê	-10.9387
ral	-10.9391
▁nâu	-10.9396
▁sy	-10.9396
▁saudi	-10.9397
▁roma	-10.9407
▁young	-10.9415
cy	-10.9418
▁twitter	-10.9423
▁kỵ	-10.9424
▁chả	-10.9425
▁oan	-10.9429
▁lận	-10.943
▁honda	-10.9431
▁yo	-10.9436
ple	-10.9437
len	-10.944
▁martin	-10.9441
▁lư	-10.9442
▁bri	-10.9453
▁nốt	-10.9462
▁plus	-10.9465
▁like	-10.9467
ny	-10.9467
if	-10.9469
vì	-10.948
▁lắc	-10.9481
đà	-10.9482
▁saint	-10.9487
dn	-10.9496
qua	-10.9497
phường	-10.9506
trước	-10.9506
▁pen	-10.9516
▁sâm	-10.9521
ves	-10.9522
ling	-10.9522
▁ak	-10.9524
’	-10.9532
▁amazon	-10.9539
▁giềng	-10.9547
▁xí	-10.9576
od	-10.9577
ợ	-10.9584
▁lỡ	-10.96
▁win	-10.9602
▁open	-10.961
▁club	-10.962
▁thỉnh	-10.962
▁ub	-10.9633
▁chdcnd	-10.9635
văn	-10.9637
▁xen	-10.9642
▁bill	-10.9648
des	-10.965
▁ios	-10.9653
▁dieu	-10.9654
giám	-10.9655
rs	-10.9663
hen	-10.9667
hoa	-10.9674
yo	-10.9678
line	-10.9687
▁thomas	-10.9688
▁jean	-10.969
▁ngài	-10.9691
▁rệt	-10.9695
%)	-10.9702
▁daily	-10.9708
ning	-10.9712
▁ùn	-10.9715
out	-10.9717
eng	-10.9718
▁bẩn	-10.9726
▁harry	-10.9747
mb	-10.9754
ney	-10.9756
▁thạc	-10.9765
low	-10.9767
ana	-10.977
tv	-10.9772
▁der	-10.9773
▁ser	-10.9776
▁lầu	-10.9776
▁hit	-10.9778
ý	-10.9784
▁county	-10.9784
▁súc	-10.9787
tsu	-10.9791
▁uzbekis	-10.9799
▁cuồng	-10.9814
uk	-10.9816
hôgn	-10.982
▁rét	-10.9823
har	-10.9827
▁đun	-10.9828
▁tấu	-10.9829
▁bồn	-10.9835
▁sạc	-10.9836
lt	-10.9841
▁max	-10.9845
▁gh	-10.9848
▁lđlđ	-10.9851
▁nhiễu	-10.9852
▁gốm	-10.9859
▁tặc	-10.9868
▁chìa	-10.988
je	-10.9885
▁face	-10.9887
ăng	-10.9889
tter	-10.9891
nước	-10.9895
trên	-10.9896
ep	-10.9911
ism	-10.9916
ture	-10.9922
▁xôi	-10.9924
xi	-10.9932
tăng	-10.9933
▁chèo	-10.9939
tha	-10.994
▁wal	-10.9944
nic	-10.9945
▁nứt	-10.996
▁mẫn	-10.9967
hải	-10.9972
▁xướng	-10.9973
kov	-10.9982
▁op	-10.9986
▁kan	-11.0001
ill	-11.0002
°	-11.0005
âu	-11.0008
▁ket	-11.0013
bs	-11.0015
ả	-11.0018
▁cs	-11.0027
▁rộn	-11.0028
▁them	-11.004
ok	-11.0041
▁giò	-11.0042
▁lách	-11.0044
ies	-11.0059
▁chuyen	-11.0066
chúng	-11.007
▁rể	-11.0082
vũng	-11.0086
▁cal	-11.0091
▁lặn	-11.0108
đường	-11.0109
bin	-11.0111
ium	-11.0114
ach	-11.0119
▁angeles	-11.0128
▁xôn	-11.013
▁phím	-11.0137
hr	-11.0137
▁vớt	-11.0144
ổ	-11.015
▁bush	-11.0165
cle	-11.0177
▁phì	-11.0182
▁ker	-11.0184
▁mò	-11.0188
ez	-11.0194
▁abu	-11.0195
▁bon	-11.0198
ite	-11.0203
lip	-11.0214
▁italia	-11.0217
▁mor	-11.0223
▁ken	-11.0236
ottenham	-11.0245
▁post	-11.0253
▁hạch	-11.0268
▁tồi	-11.0278
▁khiết	-11.0291
pt	-11.0291
▁bộc	-11.0299
▁khương	-11.03
nguyễn	-11.0301
sc	-11.031
ken	-11.0313
trưởng	-11.0318
bà	-11.0319
electron	-11.0323
don	-11.0335
▁que	-11.0342
▁jordan	-11.0347
▁tơ	-11.0352
▁ze	-11.0353
▁chuông	-11.0355
▁luong	-11.0358
lor	-11.0358
▁gác	-11.0365
eo	-11.0365
▁been	-11.037
▁trễ	-11.0372
lon	-11.038
▁hydro	-11.0386
▁power	-11.0391
▁séc	-11.0395
▁túng	-11.0398
▁rò	-11.0405
thu	-11.0408
ks	-11.0409
▁pri	-11.0411
▁thiêu	-11.0412
▁cước	-11.0413
pro	-11.0415
ff	-11.0418
zo	-11.0418
▁became	-11.0419
▁oscar	-11.0419
▁best	-11.0428
ag	-11.0434
đầu	-11.0448
việc	-11.0448
trường	-11.0457
rie	-11.0458
ā	-11.0459
lli	-11.0473
▁đùa	-11.0475
▁chat	-11.0478
▁pr	-11.0481
▁chuc	-11.0483
▁sn	-11.0484
▁chiết	-11.049
▁mtv	-11.049
▁sal	-11.0501
▁$	-11.0502
▁fer	-11.0522
▁giọt	-11.0524
sis	-11.0528
thực	-11.0548
▁zi	-11.0553
▁latinh	-11.0561
sia	-11.0561
football	-11.0564
ubnd	-11.0573
▁wales	-11.0574
▁má	-11.0575
▁hái	-11.0601
hu	-11.0607
▁jack	-11.0607
sco	-11.0628
▁chris	-11.063
đến	-11.0634
tn	-11.0637
▁quật	-11.0637
▁lít	-11.0655
▁ngai	-11.0656
tainer	-11.0657
ds	-11.0661
mu	-11.0662
▁into	-11.0674
▁toyota	-11.0678
mp	-11.0686
iv	-11.0692
▁cồn	-11.0695
bắc	-11.0699
▁ford	-11.0699
▁rổ	-11.0723
▁vol	-11.0726
▁xê	-11.073
thông	-11.0732
▁pgs	-11.0738
▁mươi	-11.0744
▁ste	-11.0752
nhân	-11.0754
▁phiền	-11.0755
can	-11.0761
▁run	-11.0768
▁cđv	-11.0774
▁phơi	-11.0778
ỗ	-11.0779
▁loi	-11.0782
▁bhxh	-11.0785
▁green	-11.0789
ita	-11.0791
liên	-11.0792
▁^	-11.08
▁ào	-11.0802
and	-11.0804
▁dối	-11.0804
▁xám	-11.081
▁đành	-11.0813
gar	-11.0819
▁kĩ	-11.0837
▁thoảng	-11.0838
▁tong	-11.084
▁dán	-11.084
hành	-11.084
▁nhuyễn	-11.0852
iz	-11.0854
cũng	-11.0859
▁hước	-11.0862
▁tà	-11.0868
▁ngo	-11.0873
▁zo	-11.0875
?"	-11.0876
đối	-11.0878
▁kiềm	-11.0894
▁died	-11.0897
cùng	-11.0906
din	-11.091
▁nobel	-11.0911
qui	-11.0918
▁---	-11.0921
▁đìnhông	-11.0935
tây	-11.0944
▁thiêng	-11.0949
ier	-11.0953
▁mác	-11.0955
nơi	-11.0955
ano	-11.0961
▁xoài	-11.0961
▁thềm	-11.0966
▁gấu	-11.097
ạc	-11.0977
▁vóc	-11.0978
▁way	-11.0984
▁il	-11.0988
df	-11.0994
▁rùa	-11.0995
ous	-11.1001
▁lay	-11.1009
ồng	-11.101
▁đực	-11.1012
▁movie	-11.1017
▁mttq	-11.1029
wan	-11.1035
▁ir	-11.1042
ip	-11.1043
▁nguội	-11.1046
▁led	-11.1046
kin	-11.1046
phát	-11.1052
bước	-11.1052
▁thầm	-11.1063
pp	-11.1069
car	-11.107
▁gối	-11.1074
▁bull	-11.1078
▁ướt	-11.108
▁hãn	-11.1088
▁bien	-11.1093
đó	-11.1093
ptnt	-11.1094
▁awards	-11.1097
▁email	-11.1099
ino	-11.1101
thế	-11.1112
▁uss	-11.1116
▁mập	-11.1123
▁pla	-11.1123
▁ipad	-11.1124
ville	-11.1125
▁hat	-11.1128
▁sm	-11.113
▁rủ	-11.1137
▁gục	-11.1149
▁dẻo	-11.1158
ăn	-11.1159
gue	-11.1162
▁qh	-11.1182
▁only	-11.121
▁val	-11.1213
ốc	-11.1217
▁back	-11.1219
ani	-11.1221
thị	-11.1227
qu	-11.1228
▁pham	-11.1235
▁because	-11.1235
▁hagl	-11.1236
▁bùn	-11.1236
▁rong	-11.1256
ld	-11.1258
▁vịt	-11.1266
victoria	-11.1275
ive	-11.1276
▁ct	-11.1277
io	-11.1279
▁mãnh	-11.1284
▁cntt	-11.1285
▁nhọn	-11.1289
ero	-11.1289
pháp	-11.1291
▁bre	-11.1295
▁quas	-11.1295
đức	-11.1308
az	-11.1308
born	-11.1312
ẩy	-11.1315
lla	-11.1319
▁hd	-11.1321
▁giadinh	-11.1322
▁bai	-11.1327
king	-11.1338
▁vh	-11.1341
tb	-11.1348
tis	-11.1348
▁đuối	-11.1349
đặc	-11.1353
▁august	-11.1356
▁pccc	-11.1358
quan	-11.1362
iversity	-11.1368
▁app	-11.1369
mann	-11.1377
▁munich	-11.1393
van	-11.1403
▁lien	-11.141
▁chán	-11.1424
nguồn	-11.1425
▁bel	-11.1437
▁btc	-11.1441
▁phanh	-11.1442
cuộc	-11.1443
▁tac	-11.1458
▁jose	-11.1481
▁lung	-11.1482
nga	-11.1485
oli	-11.149
▁hao	-11.1502
ĩ	-11.1508
▁tar	-11.1509
▁brasil	-11.1517
bb	-11.1518
ding	-11.1519
bar	-11.153
om	-11.1532
▁xào	-11.1532
▁sky	-11.1532
▁rộ	-11.1535
▁tor	-11.1536
nes	-11.1537
▁ll	-11.1546
▁school	-11.1561
▁life	-11.1565
▁liễu	-11.1571
▁micro	-11.1576
▁trăn	-11.1585
gh	-11.16
zu	-11.1606
▁ss	-11.1612
▁cl	-11.1614
▁cro	-11.1617
▁chăng	-11.1623
▁vina	-11.1632
ise	-11.1638
▁mag	-11.1644
▁during	-11.1646
▁nhôm	-11.1646
▁java	-11.1651
▁him	-11.1667
▁ráo	-11.1672
▁les	-11.1677
{	-11.1679
▁khuê	-11.168
▁zu	-11.1683
ây	-11.1688
câu	-11.169
▁ceo	-11.1692
▁um	-11.1698
bản	-11.1701
ara	-11.1705
▁years	-11.1707
▁nen	-11.171
fo	-11.1711
ữ	-11.1713
qaeda	-11.1715
▁cuộn	-11.1715
▁xát	-11.1716
▁radar	-11.1719
▁càn	-11.1725
▁ol	-11.1733
tc	-11.1739
cách	-11.1747
▁dar	-11.1748
▁dở	-11.175
▁đạc	-11.1752
▁liu	-11.1754
▁oai	-11.1757
nder	-11.1765
▁nương	-11.177
▁town	-11.1778
▁ft	-11.1782
▁thắn	-11.1784
▁bangkok	-11.1788
▁đếm	-11.179
▁viettel	-11.1793
way	-11.1797
▁kề	-11.18
▁fran	-11.1806
▁texas	-11.1816
fl	-11.1816
▁love	-11.183
▁tản	-11.1834
▁lanh	-11.1843
▁florida	-11.1843
▁ngoặt	-11.1853
▁khiếp	-11.1853
gs	-11.1858
▁monaco	-11.1862
▁nắp	-11.1862
ada	-11.1864
kinh	-11.1869
▁bấm	-11.1871
▁under	-11.1877
▁kẹo	-11.1881
yl	-11.1889
seo	-11.1889
cầu	-11.1899
▁lăn	-11.1906
▁cối	-11.1907
▁bor	-11.1909
nhiều	-11.1909
chiến	-11.191
▁xé	-11.1911
hơn	-11.1912
ini	-11.1914
▁intel	-11.1914
▁thưa	-11.1926
▁clo	-11.1927
lào	-11.1927
hàng	-11.1928
▁pizza	-11.1945
tập	-11.1947
tiền	-11.1952
▁rap	-11.1972
▁las	-11.1981
đi	-11.1993
▁ráp	-11.1993
pon	-11.1999
ua	-11.2001
star	-11.2009
▁đớn	-11.2011
ated	-11.2016
ôn	-11.2016
hàn	-11.202
nu	-11.2024
▁ps	-11.2029
rt	-11.2033
ò	-11.2033
ser	-11.2046
▁sùng	-11.2051
▁sả	-11.206
ea	-11.2071
▁thắc	-11.2077
ura	-11.208
lis	-11.208
gy	-11.2082
nk	-11.2082
▁main	-11.2083
▁mày	-11.2084
▁miên	-11.2087
▁hen	-11.2091
▁cach	-11.2105
ỉ	-11.2108
ness	-11.211
▁buông	-11.2116
vin	-11.212
▁cia	-11.2124
cao	-11.2126
nđ	-11.2131
▁bv	-11.2133
▁đạm	-11.2134
▁asia	-11.2137
▁khac	-11.2137
giá	-11.2138
ỡ	-11.2145
▁rome	-11.2169
hc	-11.2174
tác	-11.218
▁truoc	-11.2181
▁khoái	-11.2197
▁ray	-11.2202
▁end	-11.2208
ski	-11.221
đây	-11.2219
▁tịnh	-11.2221
ev	-11.2221
▁dồi	-11.2221
able	-11.2227
▁gã	-11.2239
▁đàng	-11.2239
all	-11.2241
%),	-11.2243
ttg	-11.2244
▁unesco	-11.2248
▁stalin	-11.2248
ric	-11.2258
ei	-11.2264
ow	-11.2269
âm	-11.2271
▁dạo	-11.2275
▁chê	-11.2287
ề	-11.2288
▁gal	-11.2292
▁chì	-11.2297
▁sony	-11.2298
ối	-11.2304
ase	-11.2309
mic	-11.2309
▁khao	-11.2312
▁giặc	-11.2316
▁cre	-11.2316
▁miện	-11.2323
▁girl	-11.2326
▁rải	-11.2326
▁nàn	-11.233
bra	-11.2333
▁hitler	-11.2335
▁ron	-11.2338
▁moon	-11.2339
▁neo	-11.2343
festival	-11.2344
▁#	-11.2348
▁col	-11.2355
▁jun	-11.2355
▁khôn	-11.2358
▁đắm	-11.2364
▁xít	-11.2365
▁mp	-11.2371
▁ngoai	-11.2374
▁very	-11.2377
▁ger	-11.2385
▁hé	-11.2389
bị	-11.2391
▁psg	-11.2398
▁chen	-11.24
▁–	-11.2402
▁hãm	-11.2403
▁khử	-11.2403
ét	-11.2408
▁sin	-11.2408
tư	-11.2414
▁soi	-11.2416
▁hân	-11.2425
▁far	-11.2428
▁house	-11.2431
▁dua	-11.2431
phân	-11.2437
thương	-11.2438
▁sur	-11.2438
ến	-11.2443
long	-11.2458
▁note	-11.2461
▁pt	-11.2462
lf	-11.2462
tự	-11.2465
▁sri	-11.2476
▁fpt	-11.2484
af	-11.2487
tđ	-11.2488
▁hau	-11.2491
▁dr	-11.2494
▁đèo	-11.2494
▁doan	-11.2495
▁điên	-11.2498
pv	-11.25
▁chéo	-11.2501
▁cắn	-11.2511
▁htx	-11.2512
▁ngoan	-11.2513
▁bolero	-11.252
par	-11.2522
▁lót	-11.2523
▁wall	-11.2553
▁cỗ	-11.2556
nie	-11.2559
▁đặn	-11.2566
log	-11.2566
ins	-11.2566
▁bóc	-11.2567
ươ	-11.257
pop	-11.2574
▁nộ	-11.2577
▁white	-11.258
▁keo	-11.2584
ik	-11.2588
sáng	-11.2589
▁east	-11.259
▁cởi	-11.26
▁dy	-11.26
hđ	-11.2607
rus	-11.2617
▁ngoạn	-11.262
ft	-11.2623
▁kien	-11.2627
▁hận	-11.263
▁gang	-11.2634
▁gio	-11.2634
▁gene	-11.2636
dự	-11.2639
▁pal	-11.2641
cul	-11.2657
▁comp	-11.2664
"-	-11.2673
▁xuat	-11.2674
▁ttxvn	-11.268
xem	-11.2683
▁style	-11.2686
▁use	-11.2692
▁dis	-11.2692
▁ủ	-11.2699
▁quách	-11.2703
▁hổng	-11.2711
▁cù	-11.2712
thứ	-11.2714
▁trán	-11.2719
▁bal	-11.2725
▁xiêm	-11.273
▁đắn	-11.2736
▁ql	-11.2742
▁sir	-11.2742
▁covid	-11.276
▁these	-11.2767
▁kí	-11.2767
▁nhược	-11.2771
ệ	-11.2773
▁cọc	-11.2776
▁thủng	-11.2777
▁xiv	-11.278
▁tuất	-11.278
ré	-11.2782
▁well	-11.2784
▁trù	-11.2785
ship	-11.2786
▁ic	-11.2789
▁giã	-11.2793
▁hiv	-11.2798
tổ	-11.2801
phần	-11.2805
ros	-11.2821
aya	-11.2821
▁thính	-11.2826
▁tpo	-11.2828
▁bẫy	-11.2832
▁tich	-11.2832
▁vat	-11.2834
phải	-11.2835
▁cr	-11.2841
▁neymar	-11.2841
ern	-11.2853
dia	-11.2858
▁rat	-11.2858
▁name	-11.286
non	-11.286
stein	-11.2861
pla	-11.2866
▁br	-11.2868
lượng	-11.2869
▁ốm	-11.2872
nis	-11.2873
▁ip	-11.2875
▁shin	-11.2877
▁port	-11.2878
▁buồng	-11.2881
▁qđ	-11.2882
▁river	-11.2882
▁nhậu	-11.2883
▁xẻ	-11.2884
▁chile	-11.2891
ari	-11.2896
▁lánh	-11.2897
▁lg	-11.2899
▁diệp	-11.2903
▁water	-11.2909
▁mao	-11.2911
lexander	-11.292
row	-11.2922
erusalem	-11.2923
▁showbiz	-11.2923
▁cuoc	-11.2924
▁ơi	-11.2927
ses	-11.2938
ẹ	-11.2945
sp	-11.2949
hs	-11.2953
▁gậy	-11.2954
▁nếm	-11.2954
▁hieu	-11.2956
berg	-11.296
▁system	-11.2963
▁phuong	-11.2966
ẻ	-11.297
▁diên	-11.2989
ade	-11.2996
dio	-11.2997
pha	-11.3007
▁***	-11.3008
▁ran	-11.3032
▁đắng	-11.3041
▁tưới	-11.3044
▁federer	-11.3047
▁bén	-11.3053
▁tiep	-11.306
tus	-11.3061
%;	-11.3066
▁lơ	-11.3073
▁opera	-11.3079
▁mary	-11.3083
▁tảo	-11.3083
▁frank	-11.3088
▁giếng	-11.31
▁nhát	-11.3101
▁fox	-11.3106
▁cd	-11.3108
bulgaria	-11.311
hình	-11.3141
tre	-11.3142
sy	-11.3146
▁vck	-11.3147
▁poly	-11.3147
▁nasa	-11.3152
▁mía	-11.3157
gin	-11.3178
sse	-11.3182
▁lột	-11.3184
▁boy	-11.3184
ub	-11.3201
▁sấu	-11.3204
▁tal	-11.3218
mal	-11.3224
tuy	-11.3224
▁yemen	-11.3226
▁ep	-11.3229
ue	-11.323
ứt	-11.3233
cer	-11.3235
▁ion	-11.3236
▁ngà	-11.3237
▁ara	-11.3245
▁hormone	-11.3247
▁roi	-11.3247
▁cnn	-11.3258
▁thoả	-11.3263
gb	-11.3265
▁huong	-11.3269
▁ròng	-11.3273
▁daniel	-11.328
▁res	-11.3283
▁player	-11.3283
dân	-11.329
▁đè	-11.3292
▁joseph	-11.3294
▁kẽm	-11.3295
▁book	-11.3296
▁diệm	-11.33
▁tap	-11.3301
▁diem	-11.3308
▁stra	-11.3309
▁croatia	-11.3321
tive	-11.3325
▁blue	-11.3333
▁arabia	-11.3337
▁khoá	-11.3337
hoàng	-11.3341
quân	-11.3351
cia	-11.3354
thủ	-11.3361
▁vã	-11.3362
chu	-11.3362
▁cấy	-11.3364
▁sat	-11.3365
▁mb	-11.3366
▁type	-11.3369
ray	-11.337
▁asian	-11.3371
ồi	-11.3372
colombia	-11.3375
ử	-11.3378
▁cúc	-11.3381
ống	-11.3401
▁make	-11.3403
▁io	-11.3416
▁studio	-11.3418
right	-11.3424
lus	-11.3424
▁nao	-11.3457
ful	-11.3458
▁tò	-11.3459
%).	-11.3462
▁rễ	-11.3463
zy	-11.3465
▁bồng	-11.3466
▁cành	-11.3467
▁vôi	-11.348
▁hóc	-11.3483
bank	-11.3484
▁phap	-11.3493
aki	-11.3493
▁four	-11.3499
▁báu	-11.3505
▁ari	-11.3505
▁solo	-11.352
ova	-11.3534
đội	-11.3535
▁chật	-11.3537
▁macron	-11.3538
▁mal	-11.3541
▁trơn	-11.3544
▁lđ	-11.3551
▁nadal	-11.3571
▁nham	-11.3572
▁mượt	-11.3581
▁dra	-11.3589
lý	-11.36
▁xảo	-11.3602
▁ấu	-11.3603
▁bệ	-11.3608
▁if	-11.3613
▁cat	-11.362
▁xx	-11.3633
vai	-11.3641
▁year	-11.3651
▁mt	-11.3663
▁huỷ	-11.3669
tal	-11.3669
▁ama	-11.3671
cker	-11.3674
hy	-11.3687
cb	-11.3691
▁china	-11.3693
▁albert	-11.3694
▁var	-11.3701
▁xấp	-11.3703
▁tề	-11.371
▁nokia	-11.3714
▁barack	-11.3714
▁lướt	-11.3714
▁ok	-11.3715
▁vách	-11.3721
▁trieu	-11.3729
▁ó	-11.3731
▁camp	-11.3735
▁lộng	-11.3736
▁mel	-11.3742
ene	-11.3746
▁file	-11.3761
▁nghiep	-11.3762
text	-11.3767
▁thắm	-11.3769
▁played	-11.3774
bl	-11.3781
▁spa	-11.3787
end	-11.3788
▁laptop	-11.3792
▁pol	-11.3793
nq	-11.3795
ord	-11.3796
út	-11.3799
định	-11.3802
▁quất	-11.3803
▁băn	-11.3804
nia	-11.3813
▁đẫm	-11.3815
▁thới	-11.3815
mail	-11.3819
ánh	-11.3828
roll	-11.3829
ella	-11.3829
▁place	-11.3845
▁gầm	-11.3848
▁media	-11.3858
▁bưởi	-11.3859
bảo	-11.3861
cl	-11.3868
▁between	-11.3871
vel	-11.3873
mir	-11.3874
lam	-11.3876
▁cel	-11.3877
hệ	-11.3881
▁ndđt	-11.3884
lđ	-11.3886
▁ev	-11.3886
ey	-11.389
ford	-11.389
▁uốn	-11.3891
▁laser	-11.3891
ala	-11.3897
ure	-11.3901
day	-11.3902
nữ	-11.3904
▁viếng	-11.3905
▁deir	-11.391
▁uni	-11.391
▁pat	-11.3915
giai	-11.3918
ien	-11.3933
▁serbia	-11.3939
▁khoăn	-11.3942
▁chưng	-11.3945
▁taliban	-11.395
▁johnson	-11.3953
▁metro	-11.3955
▁lap	-11.3961
▁đũa	-11.3961
ath	-11.3967
áp	-11.3968
▁vọt	-11.3974
▁grab	-11.3976
dic	-11.3978
▁ghét	-11.3984
ring	-11.3985
▁tẩu	-11.3985
▁mài	-11.3991
▁vá	-11.3992
ũ	-11.3995
illa	-11.4003
▁vin	-11.4004
lizabeth	-11.4007
▁gold	-11.4009
▁vung	-11.4013
▁sco	-11.4019
▁ard	-11.402
▁nôn	-11.402
▁next	-11.403
gọi	-11.4035
cal	-11.4038
sch	-11.4041
tur	-11.4042
▁xii	-11.4047
▁kali	-11.4052
▁diễm	-11.4053
▁trãi	-11.4053
▁ottoman	-11.4053
▁later	-11.4057
▁bks	-11.4058
báo	-11.4064
▁lựu	-11.4065
▁ghen	-11.4069
▁sọ	-11.4069
▁villa	-11.4069
▁roman	-11.407
rey	-11.4072
▁quỳ	-11.4075
▁vksnd	-11.4076
▁py	-11.4079
▁tuc	-11.4081
▁>	-11.4083
tti	-11.4085
độ	-11.4086
▁đấm	-11.4087
bit	-11.4093
▁smith	-11.4102
▁libya	-11.4111
bert	-11.4113
▁rao	-11.412
ight	-11.4139
▁adam	-11.4146
▁jin	-11.4148
▁fin	-11.4148
▁fre	-11.4154
tphcm	-11.4163
diễn	-11.4166
▁hoac	-11.4169
▁tech	-11.4173
▁bọt	-11.4175
ena	-11.4176
▁ghé	-11.4177
▁tehran	-11.418
▁trans	-11.4185
▁mìn	-11.4189
▁ros	-11.419
▁clinton	-11.4192
▁europa	-11.4194
eg	-11.4197
▁bôi	-11.421
gồm	-11.4213
▁three	-11.4215
▁xoắn	-11.4215
▁diễu	-11.4216
tình	-11.4217
▁char	-11.4219
▁mr	-11.4222
ht	-11.4227
▁capital	-11.4227
▁cày	-11.4236
mercedes	-11.4239
era	-11.4243
▁phả	-11.4251
fu	-11.4252
▁húng	-11.4262
chia	-11.4263
▁para	-11.4271
▁hun	-11.4275
▁dê	-11.4285
▁brown	-11.4286
sey	-11.4286
▁vtc	-11.4289
▁kt	-11.4294
▁atm	-11.4295
▁gri	-11.4296
▁khiếm	-11.4298
▁gieo	-11.4299
xe	-11.4304
cm	-11.4321
▁spe	-11.4323
quá	-11.4329
ifferent	-11.4333
rit	-11.4333
dra	-11.4333
ón	-11.4336
tho	-11.4338
▁law	-11.4338
avi	-11.4342
▁wood	-11.4342
ram	-11.4343
điện	-11.4346
▁single	-11.4351
▁khỉ	-11.4359
▁chuồng	-11.4359
▁gb	-11.4366
▁bro	-11.4368
▁would	-11.4368
▁where	-11.4369
úc	-11.4373
▁xoa	-11.4373
▁net	-11.4377
▁chớp	-11.4381
▁vnpt	-11.4384
bon	-11.4393
▁bac	-11.4404
▁karaoke	-11.4404
▁free	-11.4406
▁hor	-11.4409
ssi	-11.4411
▁age	-11.4412
▁bính	-11.4413
▁abe	-11.4419
pan	-11.442
▁flo	-11.4423
▁ns	-11.4433
▁lẫy	-11.444
▁radio	-11.4441
resident	-11.4446
động	-11.4447
▁number	-11.4452
▁good	-11.4453
▁mail	-11.4453
▁light	-11.4453
▁center	-11.4453
tions	-11.446
▁hoạ	-11.4461
▁anti	-11.4463
ền	-11.4472
led	-11.4472
▁second	-11.4481
▁stephen	-11.4488
▁ls	-11.4489
ml	-11.4494
▁đục	-11.45
stagram	-11.45
ye	-11.4508
ố	-11.451
▁quạt	-11.4513
▁ngục	-11.4522
trafford	-11.4524
▁ngỡ	-11.4525
ộ	-11.4528
▁ala	-11.454
này	-11.4542
cent	-11.4546
▁moskva	-11.4548
▁lim	-11.4553
nhưng	-11.4558
▁ferrari	-11.456
▁nđ	-11.4563
điểm	-11.4567
▁get	-11.4569
▁german	-11.457
ston	-11.4572
fc	-11.4574
▁dỗ	-11.4576
lit	-11.4577
pen	-11.458
well	-11.4581
▁inc	-11.4581
▁america	-11.4582
▁nhặt	-11.4585
▁mil	-11.4598
▁sub	-11.4604
▁nigeria	-11.4605
lê	-11.4609
▁trien	-11.461
ata	-11.4621
▁truất	-11.4621
hiệu	-11.4623
vt	-11.4626
dor	-11.4627
mart	-11.4631
▁sto	-11.4631
▁đùi	-11.4633
''	-11.4636
▁line	-11.4643
▁bs	-11.465
zan	-11.4651
▁marx	-11.4653
▁bou	-11.4656
mun	-11.4664
▁chicago	-11.467
kar	-11.4676
▁chien	-11.4677
▁dấy	-11.4682
burg	-11.4695
ward	-11.4696
▁jan	-11.4698
ble	-11.4708
kho	-11.4732
yu	-11.474
dan	-11.4743
vị	-11.4744
gd	-11.4746
▁kè	-11.4755
▁nsưt	-11.4756
▁everton	-11.4756
language	-11.4756
▁tel	-11.4758
▁còi	-11.4761
tô	-11.4774
ẽ	-11.4777
ole	-11.4788
▁gioi	-11.4789
quy	-11.4792
▁lỵ	-11.4794
▁ria	-11.4794
▁rốt	-11.4796
ugh	-11.4798
họ	-11.4798
▁yeu	-11.4808
ân	-11.4814
▁nhục	-11.4817
▁phiêu	-11.4818
▁serie	-11.4819
sto	-11.4824
...)	-11.4824
▁ec	-11.4828
ferguson	-11.483
▁gân	-11.4832
aw	-11.4835
rou	-11.4835
▁cọ	-11.4836
ky	-11.4836
▁ủi	-11.4837
▁cc	-11.484
▁kennedy	-11.4842
▁quấy	-11.4842
▁bóp	-11.4844
▁tw	-11.4845
trái	-11.4845
ell	-11.4848
▁award	-11.4851
▁force	-11.4854
▁vắc	-11.4855
ít	-11.4857
▁cer	-11.4862
▁wo	-11.4863
▁cang	-11.4868
ễ	-11.4872
▁bạt	-11.4872
}	-11.4874
▁kẽ	-11.4875
gon	-11.4875
đa	-11.488
▁vòi	-11.4882
ẩm	-11.4882
business	-11.4892
▁chang	-11.4904
▁office	-11.4905
▁hp	-11.4907
▁gõ	-11.4907
▁sừng	-11.4908
▁british	-11.4917
▁viền	-11.4926
▁brad	-11.4928
einstein	-11.493
ox	-11.4938
▁mas	-11.4946
▁general	-11.4949
▁lã	-11.4951
phú	-11.4958
▁chải	-11.4961
▁cò	-11.4962
tte	-11.4964
▁ạ	-11.4965
met	-11.497
▁carl	-11.497
▁phao	-11.4972
▁hoán	-11.4977
▁sol	-11.498
▁sói	-11.498
▁est	-11.4981
▁chửi	-11.4983
▁thỏ	-11.4986
ae	-11.499
▁teen	-11.4994
▁january	-11.5005
▁nghênh	-11.5006
rd	-11.5006
▁tiệp	-11.5006
▁latin	-11.5007
▁work	-11.5011
▁fbi	-11.5014
▁auto	-11.5015
▁mes	-11.5015
▁rước	-11.5032
▁afp	-11.5034
▁ngất	-11.5043
▁ập	-11.5043
cor	-11.5044
bol	-11.5044
▁nòng	-11.5045
▁ngòi	-11.5048
▁lhp	-11.5056
▁gor	-11.5059
sky	-11.5059
ii	-11.5059
sẽ	-11.506
ller	-11.5063
uri	-11.5063
▁zing	-11.5065
▁cừu	-11.5071
▁tạc	-11.5074
ass	-11.5082
moto	-11.5093
▁nhnn	-11.5094
▁chùm	-11.5094
partment	-11.5097
▁march	-11.5099
cus	-11.5106
▁shar	-11.5107
▁gui	-11.5107
▁tuyền	-11.5114
chị	-11.5118
elli	-11.5118
ality	-11.512
▁machine	-11.5126
▁thắp	-11.5133
▁nhộn	-11.5133
▁pp	-11.5133
giáo	-11.5138
▁ds	-11.514
▁af	-11.5142
cả	-11.5144
▁xót	-11.5146
▁ngạn	-11.5147
▁key	-11.5149
▁roger	-11.5149
▁gre	-11.5151
▁hoằng	-11.5159
▁stress	-11.516
▁hol	-11.5168
▁nghẽn	-11.5171
liveshow	-11.5187
▁dại	-11.5189
▁conte	-11.519
▁ye	-11.5191
▁bus	-11.5193
õ	-11.5197
▁mạ	-11.5199
▁lọ	-11.5202
gần	-11.5207
▁gro	-11.5207
truyền	-11.5209
▁luyến	-11.521
ủ	-11.521
▁street	-11.5211
mes	-11.5214
▁form	-11.5215
ola	-11.5217
hara	-11.5221
▁doãn	-11.5223
win	-11.5234
oo	-11.5235
▁chén	-11.5236
ôi	-11.5241
▁xì	-11.5246
mà	-11.5253
lar	-11.5258
▁kur	-11.5258
▁vs	-11.526
▁until	-11.5262
▁mont	-11.5268
▁tic	-11.5268
▁chui	-11.527
▁gruzia	-11.5275
old	-11.5283
ssa	-11.5286
▁dào	-11.5288
đơn	-11.5289
▁peru	-11.5292
hamilton	-11.5301
ava	-11.5306
▁né	-11.5311
ws	-11.5314
▁ob	-11.5317
▁area	-11.5318
bạn	-11.5318
▁tc	-11.532
▁muc	-11.5322
atalonia	-11.5327
cin	-11.5338
▁sel	-11.534
▁kiêu	-11.5341
▁great	-11.5347
./.	-11.5348
▁sv	-11.5349
lie	-11.5351
▁nung	-11.5355
▁act	-11.5358
tham	-11.5365
▁disney	-11.5366
tóm	-11.5369
▁doc	-11.5376
ngoài	-11.5383
shire	-11.5383
▁taylor	-11.5387
▁juan	-11.5388
ủy	-11.539
▁giêng	-11.5394
virginia	-11.5394
fer	-11.5395
▁nhien	-11.54
▁tieu	-11.541
rk	-11.541
▁usb	-11.5417
đang	-11.5417
▁rio	-11.5425
bel	-11.5428
▁cẩu	-11.5434
▁saigon	-11.5435
▁toa	-11.5435
field	-11.5436
bia	-11.5448
gra	-11.5455
ore	-11.5457
▁belarus	-11.5458
▁dạn	-11.5463
▁jae	-11.5463
đánh	-11.5467
▁dich	-11.5471
▁small	-11.5473
▁such	-11.5474
▁vứt	-11.5475
▁óc	-11.5478
▁trỗi	-11.5498
▁scandal	-11.5511
pin	-11.5512
▁giu	-11.5513
▁oc	-11.5517
tài	-11.5518
ứ	-11.552
â	-11.5521
mos	-11.5525
▁francis	-11.5525
trú	-11.5528
▁see	-11.5529
phan	-11.553
▁night	-11.554
bằng	-11.5548
▁vii	-11.5548
▁chọc	-11.5548
▁trệ	-11.5554
▁chậu	-11.5555
▁ley	-11.5565
sử	-11.5571
ques	-11.5575
▁khuynh	-11.5578
▁politic	-11.5588
dar	-11.5589
gre	-11.5596
ao	-11.56
▁ny	-11.56
▁hip	-11.5602
▁họng	-11.5603
▁rẫy	-11.5605
▁ưng	-11.5605
▁nsnd	-11.5605
lay	-11.5607
▁duc	-11.5611
▁philip	-11.5611
đoạn	-11.5614
rom	-11.5616
▁thối	-11.5619
▁phil	-11.562
▁kình	-11.5624
▁eli	-11.5632
▁down	-11.5633
▁sport	-11.5634
tom	-11.5638
▁mig	-11.5639
dent	-11.5641
▁armenia	-11.5645
▁pay	-11.5656
▁phàn	-11.5667
las	-11.568
▁region	-11.5682
hôm	-11.5683
▁english	-11.5686
▁pl	-11.5686
▁xuôi	-11.5687
▁đu	-11.5693
bang	-11.5693
▁idol	-11.57
die	-11.5708
▁mari	-11.5718
ally	-11.5719
▁xo	-11.5721
▁nạ	-11.5724
▁family	-11.5727
tel	-11.5728
dr	-11.5735
▁cám	-11.5747
▁rạn	-11.5765
▁kam	-11.5765
▁chọi	-11.5767
chưa	-11.5767
địa	-11.5767
dragon	-11.5769
▁bit	-11.5771
▁kệ	-11.5773
▁dẫu	-11.5782
ristiano	-11.5782
▁bridge	-11.5784
let	-11.5785
del	-11.579
▁word	-11.5792
▁lừng	-11.5796
▁siết	-11.5796
▁off	-11.5797
rick	-11.5802
▁tivi	-11.5814
ese	-11.5819
ments	-11.5821
▁khuấy	-11.5822
tta	-11.5834
▁boeing	-11.5836
ori	-11.5841
cần	-11.5852
ator	-11.5855
▁dubai	-11.5863
▁nuối	-11.5864
▁rô	-11.5864
▁gp	-11.5869
▁logo	-11.5872
anda	-11.5877
▁futsal	-11.5877
▁did	-11.588
ello	-11.5888
hồ	-11.589
▁through	-11.5891
▁điềm	-11.5891
▁display	-11.5896
▁ngần	-11.5907
▁hall	-11.591
▁tát	-11.5918
▁island	-11.5921
▁thy	-11.5925
ễn	-11.5929
▁card	-11.5929
▁concert	-11.5933
oz	-11.5934
▁thề	-11.594
▁sum	-11.5941
▁hốt	-11.5953
vis	-11.5957
nc	-11.596
zer	-11.5972
cher	-11.5978
ác	-11.5982
đh	-11.5988
▁petro	-11.5989
nsformer	-11.5994
▁carlos	-11.5995
▁vòm	-11.6005
dal	-11.6009
▁lầy	-11.6016
▁loai	-11.6017
▁vặt	-11.6018
ens	-11.602
released	-11.6021
▁chau	-11.603
uni	-11.6034
▁rán	-11.6035
tain	-11.6036
%/	-11.6036
▁nick	-11.6037
▁point	-11.6047
▁mike	-11.6057
▁đả	-11.6061
sor	-11.6066
arketing	-11.6066
▁jung	-11.6083
▁ess	-11.6084
▁đăk	-11.6086
illboard	-11.6087
▁diêm	-11.609
▁cớ	-11.6092
form	-11.6093
phim	-11.6096
eptember	-11.6101
▁tuyen	-11.6111
rum	-11.6115
▁khuếch	-11.6117
▁đốn	-11.6129
▁heroin	-11.6129
hn	-11.6132
▁kiem	-11.6132
ome	-11.6137
▁store	-11.614
▁global	-11.6144
br	-11.6145
▁gặt	-11.6149
▁test	-11.615
▁karl	-11.6151
▁ner	-11.6152
đoàn	-11.6153
onia	-11.6159
▁ld	-11.6167
ovic	-11.6169
lé	-11.6169
▁zidane	-11.6171
district	-11.6171
▁ngọ	-11.6176
đạo	-11.6183
eur	-11.6185
▁nano	-11.6191
▁ah	-11.6193
oni	-11.6198
▁piano	-11.6201
▁ồ	-11.6211
▁vks	-11.6218
mục	-11.6226
▁rai	-11.6232
nal	-11.6235
tam	-11.6239
▁bìa	-11.6239
rn	-11.6243
bal	-11.6244
▁thạo	-11.6257
▁cher	-11.6268
▁spi	-11.627
▁bành	-11.6285
november	-11.6286
▁before	-11.6286
▁đbqh	-11.6287
▁jen	-11.6287
nan	-11.6296
enko	-11.6302
ạn	-11.6305
▁bla	-11.6312
▁sấy	-11.6315
ám	-11.6317
mã	-11.6319
tru	-11.6322
▁plan	-11.6327
▁hẻm	-11.6329
▁short	-11.6344
▁phác	-11.6354
▁kra	-11.6355
▁tion	-11.6355
▁hét	-11.6358
side	-11.636
▁cb	-11.6361
hợp	-11.6364
ui	-11.6365
▁tăm	-11.6365
tw	-11.6367
▁mega	-11.638
ois	-11.6383
org	-11.6388
▁ivan	-11.6398
▁fdi	-11.64
▁june	-11.6401
rstappen	-11.6401
▁nới	-11.6403
yan	-11.6405
action	-11.6411
gt	-11.6414
▁cưng	-11.6415
ries	-11.6416
đông	-11.6428
▁vét	-11.6429
▁calisto	-11.6431
▁phà	-11.644
ato	-11.6441
▁choi	-11.6442
▁phẫn	-11.6445
\	-11.6448
▁jones	-11.6462
▁block	-11.6462
iss	-11.6472
▁thon	-11.6474
▁week	-11.6475
ùng	-11.6475
▁gaza	-11.648
ste	-11.6485
▁ngan	-11.6488
nexpress	-11.6489
▁doạ	-11.649
[	-11.6494
▁ptnt	-11.6495
▁nôm	-11.6496
▁costa	-11.6499
tex	-11.6502
▁nas	-11.6503
▁film	-11.6504
▁arab	-11.651
ị	-11.6512
fs	-11.6513
▁nạo	-11.6515
▁ine	-11.6521
▁tụt	-11.6524
▁dream	-11.6533
▁steve	-11.6533
▁fra	-11.6537
ida	-11.6539
▁cast	-11.6543
▁dc	-11.6547
sản	-11.6549
vas	-11.6557
▁japan	-11.656
▁person	-11.6573
ery	-11.6574
py	-11.6575
▁pas	-11.6576
cd	-11.6589
ín	-11.6589
▁ngả	-11.6592
▁trướng	-11.6592
▁đúp	-11.6592
kv	-11.6592
▁data	-11.6598
giảm	-11.6606
','	-11.6607
▁company	-11.6607
ico	-11.6616
than	-11.6619
▁dj	-11.6619
▁anton	-11.6621
▁fire	-11.6624
sai	-11.6625
▁tur	-11.6626
▁kíp	-11.6627
aka	-11.6628
▁joe	-11.6629
▁liêng	-11.6633
zon	-11.6633
ich	-11.6633
rat	-11.6634
▁since	-11.6639
▁dặn	-11.6641
ional	-11.6642
mùa	-11.6646
▁ei	-11.665
▁chạp	-11.6652
▁rụi	-11.6652
▁anna	-11.6653
▁sports	-11.6653
▁angela	-11.6656
cep	-11.666
▁lđbđ	-11.6667
▁giàn	-11.6668
phòng	-11.6677
▁tae	-11.6678
zz	-11.6678
▁ash	-11.6681
▁sỏi	-11.6682
ên	-11.6687
plo	-11.6692
▁calo	-11.6694
phy	-11.6696
december	-11.6697
▁april	-11.6697
▁bt	-11.6697
xa	-11.6699
rai	-11.6701
▁côi	-11.6703
qa	-11.6705
▁chốn	-11.6723
ceanbank	-11.6727
▁viii	-11.6728
ịch	-11.673
ă	-11.6732
▁kìm	-11.6733
elle	-11.6737
bắt	-11.6738
lp	-11.6738
▁ếch	-11.6739
▁mid	-11.6743
▁vụn	-11.6744
ovich	-11.6746
pho	-11.6748
trần	-11.6754
").	-11.6756
▁ul	-11.6757
▁thiet	-11.676
nhóm	-11.6769
itz	-11.6769
ys	-11.6773
▁alpha	-11.6774
▁tạt	-11.6779
ical	-11.6781
chất	-11.6785
dh	-11.6786
bố	-11.6788
▁cla	-11.679
▁hamburg	-11.679
▁quyen	-11.679
▁fla	-11.6791
yon	-11.6794
ology	-11.6801
▁shah	-11.6802
ration	-11.6805
▁đbscl	-11.6812
▁swi	-11.6827
▁ele	-11.6828
▁now	-11.6831
▁vùi	-11.6832
bán	-11.6835
tia	-11.6846
ộc	-11.6849
pes	-11.6853
▁blog	-11.6853
mặc	-11.6854
▁any	-11.6857
▁thửa	-11.6863
▁đao	-11.6864
▁reo	-11.6866
▁lốc	-11.6869
▁chap	-11.6873
▁sầm	-11.6878
▁got	-11.6881
tm	-11.6881
▁bẩm	-11.6883
her	-11.6886
▁thuyên	-11.6886
▁last	-11.6889
▁####	-11.6894
▁giặt	-11.6894
▁dép	-11.6896
tino	-11.6898
▁jr	-11.6905
▁bts	-11.6908
nus	-11.6908
▁dvd	-11.6909
pic	-11.691
▁afc	-11.6911
tiêu	-11.6914
ito	-11.692
lk	-11.6921
ters	-11.6928
nội	-11.6929
▁cover	-11.6931
▁sudan	-11.6942
▁bú	-11.6948
pac	-11.6954
▁kẹp	-11.6955
ations	-11.6957
hee	-11.6959
rov	-11.6959
▁phuc	-11.696
bri	-11.6962
cks	-11.6963
▁gram	-11.6965
late	-11.6965
▁pvn	-11.6968
▁súp	-11.697
acedonia	-11.697
▁chuộc	-11.6972
▁body	-11.6972
loại	-11.6973
▁đốm	-11.6975
▁mí	-11.6976
▁nhạ	-11.6982
▁kazakh	-11.6985
▁hấu	-11.6985
▁october	-11.6985
▁ngỏ	-11.6987
gladesh	-11.7002
▁racing	-11.7003
▁lanka	-11.7007
▁rách	-11.7007
▁tuoi	-11.702
williams	-11.7022
▁mobile	-11.7024
▁mỉ	-11.7027
cđ	-11.7029
▁muôn	-11.7029
▁sex	-11.7032
zimbabwe	-11.7032
▁nhồi	-11.7034
▁az	-11.7036
▁royal	-11.7048
▁râu	-11.7051
▁chao	-11.7052
▁woo	-11.7054
▁rus	-11.7056
đề	-11.7058
lai	-11.7065
llo	-11.7067
ndesliga	-11.7078
▁vác	-11.7082
▁phôi	-11.7083
▁season	-11.7083
ẫm	-11.7086
▁dem	-11.7086
dri	-11.7094
▁pierre	-11.7094
ette	-11.7094
ions	-11.7096
▁ách	-11.7098
thiên	-11.71
ned	-11.7101
▁mix	-11.7101
nov	-11.7103
oe	-11.7103
oun	-11.7103
▁stone	-11.7104
▁gala	-11.7106
▁khoi	-11.7107
▁yang	-11.7107
▁large	-11.7107
▁thuoc	-11.7108
▁develop	-11.711
▁gươm	-11.711
▁head	-11.7119
february	-11.7125
▁rụng	-11.7125
bul	-11.7126
▁often	-11.7126
pionship	-11.7146
▁mâm	-11.7148
nhận	-11.7148
▁same	-11.7148
ics	-11.7151
vụ	-11.7154
▁bp	-11.7158
yên	-11.7158
▁food	-11.7159
▁bun	-11.716
hristian	-11.716
▁trá	-11.7162
▁wars	-11.7165
▁college	-11.7172
▁antonio	-11.7172
▁chưởng	-11.7173
uz	-11.7173
▁chiểu	-11.7174
▁chót	-11.7176
yer	-11.7179
ory	-11.7181
▁cur	-11.7182
▁miến	-11.7185
▁vuc	-11.7191
art	-11.7192
ninh	-11.7196
sit	-11.7201
hua	-11.7207
▁death	-11.7207
▁tx	-11.7208
▁kor	-11.7208
▁náo	-11.7211
▁fed	-11.7211
▁nhào	-11.7211
xây	-11.7215
▁kcn	-11.7217
▁boo	-11.722
▁gon	-11.7224
▁being	-11.7225
awa	-11.7228
less	-11.723
ới	-11.7238
▁justin	-11.7244
▁gun	-11.7246
damascus	-11.7251
▁ms	-11.7254
ans	-11.7279
ings	-11.7283
▁gạt	-11.7283
▁bmw	-11.7283
▁fri	-11.7288
ashi	-11.7288
▁ff	-11.7293
dt	-11.7294
port	-11.7298
▁hawaii	-11.7299
▁quyet	-11.73
▁xix	-11.7301
key	-11.7303
▁nể	-11.7304
vùng	-11.7313
▁guitar	-11.7315
▁utd	-11.7315
▁krông	-11.7315
▁nhàn	-11.7315
▁mùng	-11.7317
▁cồng	-11.7318
▁nv	-11.7319
▁ler	-11.7322
ải	-11.7327
▁loãng	-11.7331
gp	-11.7331
▁boi	-11.7333
▁ml	-11.7333
▁háo	-11.7339
▁sach	-11.7341
▁harvard	-11.7347
▁bc	-11.7347
sở	-11.7355
hòa	-11.7357
ể	-11.7358
dc	-11.7359
sl	-11.7361
▁truyen	-11.7364
▁thuột	-11.7367
▁mah	-11.7368
▁timor	-11.7369
▁bạ	-11.7372
▁?:	-11.7373
tân	-11.7375
dortmund	-11.7379
▁lén	-11.7379
▁nhai	-11.7383
eth	-11.7386
ities	-11.7388
▁hal	-11.7391
ane	-11.7393
▁diego	-11.7395
▁wei	-11.7397
▁xiii	-11.7404
▁cõi	-11.7411
▁prince	-11.7414
thay	-11.7414
▁ces	-11.7414
▁xăm	-11.7415
tiếp	-11.7415
▁victor	-11.7417
ay	-11.7418
▁răn	-11.7426
▁central	-11.7427
ama	-11.7428
▁sành	-11.7428
▁cra	-11.7436
▁ale	-11.7449
▁lượn	-11.7455
▁vic	-11.7455
▁sputnik	-11.7459
▁rót	-11.7459
kẻ	-11.7462
▁dac	-11.7466
▁catp	-11.747
eon	-11.7472
▁hủ	-11.7474
▁muỗi	-11.7475
▁kạn	-11.7478
▁ix	-11.7478
set	-11.7478
▁tuý	-11.7485
▁baghdad	-11.7487
▁gr	-11.749
new	-11.7501
▁rooney	-11.7508
▁manila	-11.7508
▁babylon	-11.7508
▁mem	-11.7513
phương	-11.7513
▁vỗ	-11.7513
▁thê	-11.7519
time	-11.7519
ement	-11.7521
xu	-11.7521
spec	-11.7534
▁deu	-11.7535
▁khuya	-11.7536
▁úng	-11.7541
▁hiên	-11.7541
kiểm	-11.7543
▁both	-11.7547
bay	-11.7551
cam	-11.7552
sin	-11.7565
table	-11.7566
hur	-11.7567
▁dance	-11.757
▁tràm	-11.757
yama	-11.7579
▁xv	-11.7579
ql	-11.7585
ali	-11.7588
▁beckham	-11.7589
▁macbook	-11.7589
▁tua	-11.759
▁side	-11.7592
▁press	-11.7592
nhất	-11.7592
▁wan	-11.7593
bí	-11.7597
▁mốt	-11.7602
giao	-11.7602
▁tmcp	-11.7606
▁gla	-11.7609
dịch	-11.7613
▁hn	-11.7626
▁july	-11.7626
cá	-11.7627
▁đổng	-11.7636
▁lờ	-11.7638
▁sướng	-11.7639
▁derby	-11.7639
▁steven	-11.764
▁hông	-11.7642
ngụ	-11.7642
whi	-11.7643
▁búa	-11.7644
▁thìa	-11.7646
▁ima	-11.7647
giữa	-11.7649
▁đb	-11.7649
▁xói	-11.7655
▁nuốt	-11.7656
tạo	-11.7656
kỹ	-11.766
bên	-11.7664
dp	-11.7665
▁ntk	-11.7674
▁full	-11.7675
▁nghiền	-11.7675
▁êm	-11.768
▁rưỡi	-11.7688
ikipedia	-11.7688
▁om	-11.7696
ras	-11.7696
war	-11.77
▁rose	-11.7702
▁giup	-11.7728
▁romania	-11.7737
atletico	-11.7738
▁quầy	-11.7738
ự	-11.7738
eicester	-11.7738
▁sưng	-11.7738
bài	-11.7739
kha	-11.7743
▁nhện	-11.7755
zh	-11.7759
nik	-11.7759
▁century	-11.7771
▁take	-11.7784
ichi	-11.7784
roy	-11.7786
▁slna	-11.7788
▁nem	-11.7795
▁gil	-11.7799
▁hoat	-11.7803
▁jakarta	-11.7804
▁thêu	-11.7807
back	-11.7811
over	-11.7815
mua	-11.7818
▁lùn	-11.7819
▁own	-11.7821
▁đậy	-11.7821
▁pep	-11.7822
▁kiev	-11.7823
class	-11.7825
▁human	-11.7826
vision	-11.7827
yeon	-11.7827
rio	-11.7827
sing	-11.7836
▁mụn	-11.7838
▁tuỳ	-11.784
▁rob	-11.7842
xuất	-11.7848
vor	-11.7848
mus	-11.7849
▁estonia	-11.7855
illerson	-11.7855
▁sào	-11.7857
▁chày	-11.7857
▁nóc	-11.7865
thiết	-11.7865
▁laden	-11.7868
▁phen	-11.7869
▁pres	-11.7869
sửa	-11.7871
▁nậm	-11.7872
àn	-11.7872
▁miệt	-11.7873
▁nlđ	-11.7873
▁enzyme	-11.7876
▁ơ	-11.7881
▁bã	-11.7889
fen	-11.7891
▁hít	-11.7893
▁ross	-11.7893
▁sand	-11.7898
nghĩa	-11.79
ose	-11.7901
▁tau	-11.7902
▁nhuộm	-11.7905
hạ	-11.7907
kel	-11.7909
▁cara	-11.7915
▁leon	-11.7915
▁bực	-11.7917
zar	-11.7921
▁trừu	-11.7922
sar	-11.7922
▁wenger	-11.7922
▁band	-11.7923
▁sòng	-11.7928
môi	-11.7931
ess	-11.7932
▁come	-11.7932
gate	-11.7932
lại	-11.794
▁started	-11.7942
eau	-11.7946
▁lake	-11.7949
▁country	-11.7956
▁úp	-11.7957
▁lie	-11.7958
▁noel	-11.7959
▁gt	-11.7963
▁road	-11.7966
▁cannes	-11.7969
matic	-11.7973
▁bahrain	-11.7973
▁member	-11.7978
▁mun	-11.7978
fish	-11.798
kan	-11.7982
▁hard	-11.7983
▁network	-11.7985
▁berg	-11.799
▁even	-11.7992
▁ace	-11.7992
▁burg	-11.7995
▁hill	-11.7998
▁eric	-11.7998
▁arm	-11.7998
▁anne	-11.8002
àng	-11.8004
máy	-11.8004
▁hức	-11.8007
▁nou	-11.8011
▁lieu	-11.8015
lần	-11.8022
lat	-11.8028
▁bert	-11.8028
▁named	-11.8037
▁kiếp	-11.8043
slovakia	-11.8044
▁bru	-11.8048
via	-11.8051
ệt	-11.8052
spi	-11.8057
▁ey	-11.8057
▁pixel	-11.8059
arch	-11.8068
▁lua	-11.8071
▁ryan	-11.8072
▁story	-11.8077
▁alan	-11.8079
▁photo	-11.8079
ích	-11.8081
tric	-11.8083
▁let	-11.8084
▁michel	-11.8086
ace	-11.809
▁sáo	-11.809
▁tẻ	-11.8098
▁ngàng	-11.8104
ix	-11.8105
▁die	-11.8107
▁nhức	-11.811
kim	-11.8114
▁hel	-11.8116
▁văng	-11.8118
ever	-11.8119
▁mg	-11.8124
ile	-11.8126
ạm	-11.8127
▁cưỡi	-11.8128
▁science	-11.8128
▁gót	-11.8128
▁vegas	-11.8128
▁ruốc	-11.8129
jan	-11.8143
ẹt	-11.8144
oid	-11.8146
▁silicon	-11.815
jar	-11.815
▁bẻ	-11.8151
ved	-11.8151
▁giua	-11.8156
▁space	-11.8156
▁ibrahim	-11.8162
▁usually	-11.8162
▁voice	-11.817
▁hyun	-11.8173
▁rich	-11.8177
ewcastle	-11.818
▁rỗng	-11.818
guardian	-11.818
blo	-11.8181
▁eri	-11.8183
▁ghe	-11.8189
ique	-11.819
act	-11.8196
▁thâu	-11.8199
▁dae	-11.8201
ổn	-11.8205
▁shu	-11.8206
chy	-11.8208
▁lewis	-11.8214
giới	-11.8217
▁hăng	-11.8221
tay	-11.8227
▁tí	-11.8232
rất	-11.8235
▁xổ	-11.8236
▁choáng	-11.825
▁sanh	-11.825
pulation	-11.8256
▁nong	-11.8262
ami	-11.8264
▁bọ	-11.8265
▁associa	-11.8267
▁dep	-11.8268
▁khien	-11.8271
▁toản	-11.8271
▁rey	-11.8278
▁kuwait	-11.8284
▁bidv	-11.8285
▁flc	-11.8286
▁tệp	-11.8287
lee	-11.8287
ẩn	-11.8292
▁cos	-11.8293
▁flash	-11.8297
mas	-11.8298
▁suýt	-11.8303
rest	-11.8304
▁base	-11.8305
cổ	-11.8306
▁slav	-11.8309
▁aff	-11.8313
▁ino	-11.8314
▁thuở	-11.8315
▁soái	-11.8315
mặt	-11.8318
▁tấp	-11.832
-(	-11.8325
ồn	-11.8325
▁thuỵ	-11.8327
ọ	-11.8331
lâm	-11.8334
▁dal	-11.8337
ứng	-11.8344
vr	-11.8347
hel	-11.835
▁dioxide	-11.8355
▁giục	-11.8355
▁xáo	-11.8356
▁trâm	-11.8356
▁dạt	-11.8357
▁hacker	-11.8359
▁ạt	-11.8365
▁sê	-11.8369
▁lụy	-11.8373
▁against	-11.8373
▁truc	-11.8374
▁napoli	-11.8379
▁rub	-11.8385
hl	-11.8388
lên	-11.8394
mỗi	-11.8397
▁nà	-11.84
▁ngậy	-11.8408
▁tieng	-11.8411
▁nơ	-11.8411
columbia	-11.8426
▁nepal	-11.8426
kes	-11.8427
▁ez	-11.8427
▁tiger	-11.8428
▁nhiem	-11.8431
▁ther	-11.8432
▁mus	-11.8437
▁scott	-11.8438
nói	-11.8449
▁huyen	-11.8449
hoạt	-11.8453
▁rapper	-11.8457
for	-11.8458
▁sac	-11.8461
▁formula	-11.8462
▁nhái	-11.8463
eb	-11.8463
wal	-11.8465
minh	-11.8469
▁thệ	-11.847
▁?"	-11.8473
▁andrew	-11.8473
berry	-11.8476
▁bikini	-11.8479
▁england	-11.848
▁while	-11.848
▁thốt	-11.8482
vietnam	-11.8485
children	-11.8486
▁tòng	-11.8487
▁sydney	-11.8497
▁:---	-11.8497
int	-11.8499
mc	-11.85
▁penn	-11.8501
board	-11.8504
▁rea	-11.8509
▁đôla	-11.851
gli	-11.851
▁pacific	-11.8515
▁sanchez	-11.8515
▁emi	-11.852
▁party	-11.8525
ula	-11.8531
▁nón	-11.8533
▁quấn	-11.8533
▁however	-11.8533
▁baltic	-11.8534
▁jolie	-11.8534
▁near	-11.8538
▁bung	-11.8541
đất	-11.8544
lle	-11.8546
cái	-11.8546
iti	-11.855
▁quặng	-11.8552
▁what	-11.857
▁sexy	-11.8573
▁ami	-11.858
▁bhyt	-11.8582
▁hye	-11.8582
ington	-11.8585
▁thaksin	-11.8588
phong	-11.8589
▁atp	-11.8591
ỳ	-11.8591
gri	-11.8592
▁tẩm	-11.8592
▁luis	-11.8597
bor	-11.8599
▁ling	-11.8599
kl	-11.86
ial	-11.8601
ện	-11.8606
▁engine	-11.8606
ường	-11.8607
ars	-11.8608
▁đày	-11.8612
▁evn	-11.862
lưu	-11.862
▁rầm	-11.8624
erson	-11.8626
▁gả	-11.8629
▁mw	-11.8632
ency	-11.864
muhammad	-11.8642
▁gầy	-11.8642
▁watch	-11.8643
▁nar	-11.865
▁cội	-11.865
▁khoát	-11.8656
éo	-11.866
▁kevin	-11.8661
▁liber	-11.8676
jennifer	-11.8678
▁bướm	-11.8678
▁control	-11.8679
▁gán	-11.8681
▁kin	-11.8683
▁ngh	-11.8684
▁wil	-11.8697
bc	-11.8699
▁cen	-11.8699
▁trọt	-11.8701
▁said	-11.8707
tai	-11.8712
▁code	-11.8713
sec	-11.8714
▁albania	-11.8715
▁cook	-11.8715
▁võng	-11.8718
▁kang	-11.8719
chiếm	-11.872
mới	-11.8725
bil	-11.8727
etnamnet	-11.8733
yonnaise	-11.8733
ặt	-11.8734
▁rớt	-11.8735
top	-11.8735
▁lẩn	-11.8736
▁massa	-11.8743
▁tốp	-11.8743
gie	-11.8744
▁kiêng	-11.8749
pol	-11.875
▁palace	-11.8753
▁low	-11.8758
sur	-11.8762
▁field	-11.8764
ches	-11.8764
pper	-11.877
▁pedro	-11.8771
lúc	-11.8772
bất	-11.8788
▁mương	-11.8789
▁khốn	-11.879
ùn	-11.8791
chin	-11.8791
▁final	-11.8792
ại	-11.8797
▁andre	-11.8801
▁giê	-11.8801
▁audi	-11.8802
▁start	-11.8803
▁cuu	-11.8803
she	-11.8806
▁delhi	-11.8808
mor	-11.882
▁union	-11.8821
levision	-11.8824
khủng	-11.8826
▁kn	-11.8826
▁uyển	-11.8826
ben	-11.8837
▁wto	-11.8843
▁journal	-11.8844
chiều	-11.8846
▁slam	-11.8852
▁por	-11.8854
▁sô	-11.8858
▁ina	-11.8859
▁yen	-11.886
yingluck	-11.8863
▁bầy	-11.8863
▁perform	-11.8863
▁tể	-11.8866
▁bới	-11.8867
▁burger	-11.8868
tâm	-11.887
▁market	-11.8884
▁motor	-11.8884
chen	-11.8886
bat	-11.8887
▁each	-11.8892
▁lì	-11.8894
ware	-11.8898
ethiopia	-11.89
▁kremlin	-11.89
–	-11.8902
luật	-11.8902
tech	-11.8904
fin	-11.891
gal	-11.8917
▁ẩu	-11.8926
▁zh	-11.8926
▁pass	-11.893
▁thuy	-11.8935
▁mugabe	-11.8937
▁muỗng	-11.8937
▁swift	-11.8938
els	-11.8943
rei	-11.8944
ground	-11.8945
▁ball	-11.8947
east	-11.8949
room	-11.895
▁visa	-11.8969
urs	-11.8971
▁commune	-11.8975
▁georgia	-11.8975
▁uruguay	-11.8975
hot	-11.8978
chuyển	-11.8979
▁dro	-11.8981
pus	-11.8986
▁municip	-11.8994
▁merkel	-11.8994
▁simon	-11.8995
los	-11.8997
▁gates	-11.8999
vũ	-11.8999
cio	-11.9001
read	-11.9012
ước	-11.9013
▁look	-11.9014
valencia	-11.9015
▁ngò	-11.9018
▁around	-11.9019
self	-11.902
lum	-11.902
pel	-11.9022
vợ	-11.9024
rô	-11.9026
▁ngắt	-11.9032
▁sấm	-11.9032
▁guinea	-11.9032
▁av	-11.904
lov	-11.904
▁master	-11.904
▁glo	-11.9044
pad	-11.9046
ỉnh	-11.9049
pot	-11.9051
tana	-11.9053
trả	-11.9057
sign	-11.906
▁khinh	-11.9067
hor	-11.9069
uardiola	-11.907
▁hyundai	-11.907
yêu	-11.9076
▁mali	-11.9079
lịch	-11.908
cre	-11.908
stic	-11.9081
kế	-11.9081
tas	-11.9082
▁ent	-11.9084
philippe	-11.9086
▁xvi	-11.9087
ative	-11.909
▁búp	-11.9093
ực	-11.9094
▁nhả	-11.9096
▁quỵ	-11.9108
carolina	-11.911
ska	-11.9118
▁nes	-11.9122
▁include	-11.9125
▁sầu	-11.9127
▁golden	-11.9128
▁tes	-11.9128
▁view	-11.913
▁lúng	-11.9131
▁acc	-11.9134
▁tý	-11.9135
▁kit	-11.9139
▁jim	-11.9142
▁arena	-11.9147
taka	-11.9159
▁lún	-11.9161
napoléon	-11.9165
▁dậu	-11.9165
▁french	-11.9165
▁xốp	-11.9165
▁nitơ	-11.9165
▁jazz	-11.9166
▁hường	-11.9168
ounce	-11.9169
mẹ	-11.9172
eri	-11.9173
▁service	-11.9177
▁cacbon	-11.9181
won	-11.9182
division	-11.9183
▁touch	-11.9189
kins	-11.9189
▁oh	-11.9191
tinh	-11.9195
▁gđ	-11.9197
▁chà	-11.9198
cục	-11.9198
pet	-11.9199
ika	-11.9201
azerbaij	-11.9203
present	-11.9204
▁lich	-11.9205
▁boston	-11.9205
ược	-11.9207
▁rt	-11.9213
▁pur	-11.9215
▁kyrgyz	-11.9223
▁lionel	-11.9223
province	-11.9223
ob	-11.9229
▁thien	-11.923
ển	-11.9235
▁vựng	-11.9242
▁xắn	-11.9242
▁help	-11.9242
▁sina	-11.9245
▁bừng	-11.9245
hậu	-11.9246
▁uk	-11.9248
viết	-11.9255
oke	-11.926
▁lou	-11.9269
▁ải	-11.9269
▁kyo	-11.9271
kể	-11.9277
▁thản	-11.9278
▁wang	-11.928
napoleon	-11.9281
▁catalan	-11.9281
▁linux	-11.9281
▁beta	-11.9282
▁iso	-11.9287
ille	-11.9288
▁eco	-11.9289
▁hnx	-11.9291
òng	-11.9291
phản	-11.9293
▁manga	-11.9293
pri	-11.9304
▁té	-11.9305
▁dì	-11.9306
tle	-11.9307
▁suc	-11.9307
wo	-11.9308
▁ngó	-11.9314
▁ibm	-11.932
range	-11.9324
▁cuc	-11.9339
▁cent	-11.934
▁cừ	-11.934
ax	-11.9342
▁wor	-11.9343
▁common	-11.9345
iya	-11.935
tec	-11.9353
▁thốn	-11.9355
▁nức	-11.9359
ttention	-11.9359
▁newton	-11.937
mur	-11.9374
▁ble	-11.9375
▁women	-11.9379
▁fuji	-11.9379
ets	-11.9384
▁bern	-11.9386
▁rna	-11.9391
▁mít	-11.9394
▁cấn	-11.9398
▁khắt	-11.9398
▁nhúng	-11.9398
tit	-11.94
bre	-11.94
)...	-11.9402
▁lea	-11.9405
grad	-11.9406
▁hari	-11.9407
char	-11.9409
lian	-11.941
▁several	-11.9417
▁mad	-11.9417
▁thiều	-11.9418
▁cuoi	-11.9419
▁nm	-11.9425
istan	-11.9426
▁constan	-11.9431
dis	-11.9433
bệnh	-11.9434
▁tb	-11.9435
ization	-11.9435
▁forbes	-11.9437
▁nhốt	-11.9439
ces	-11.944
▁hand	-11.9441
siêu	-11.9443
cap	-11.9443
!"	-11.9447
ão	-11.9447
▁bô	-11.9452
▁shan	-11.9454
▁$\	-11.9457
▁ori	-11.9468
ors	-11.9469
mobifone	-11.9477
▁public	-11.9477
ale	-11.9477
dù	-11.9478
of	-11.9478
▁goi	-11.9481
▁khach	-11.9483
▁tày	-11.9484
▁yong	-11.9484
▁nấy	-11.9496
lời	-11.9497
bur	-11.9497
▁queen	-11.95
rơ	-11.9505
rich	-11.9507
phụ	-11.9511
▁prime	-11.9512
▁cuống	-11.9512
▁tdtt	-11.9516
▁nhac	-11.9517
▁nhâm	-11.9518
▁tower	-11.9519
chú	-11.952
▁cược	-11.9521
▁maya	-11.9523
vernment	-11.9528
▁santa	-11.9529
▁bad	-11.9535
sơn	-11.9535
▁diesel	-11.9536
▁rãnh	-11.954
▁mép	-11.954
▁former	-11.9543
chain	-11.9543
▁earth	-11.9547
▁xh	-11.9549
mất	-11.9556
▁ngạt	-11.9556
▁ngậm	-11.9556
▁sevilla	-11.9556
▁thèm	-11.9556
khá	-11.956
▁kara	-11.9561
▁mè	-11.9568
▁tie	-11.9569
sống	-11.957
ode	-11.958
▁dun	-11.9582
▁porto	-11.9583
ảng	-11.9584
ưởng	-11.959
hoàn	-11.9594
êm	-11.9596
▁saddam	-11.9596
kỳ	-11.96
▁yan	-11.9604
▁bob	-11.9605
▁giông	-11.9605
▁met	-11.9608
▁ks	-11.9616
▁duterte	-11.9616
cấp	-11.9617
▁your	-11.9619
▁nt	-11.9619
nor	-11.9623
rel	-11.9626
▁marie	-11.9631
▁gap	-11.9632
had	-11.9637
▁henri	-11.9637
pr	-11.9639
▁cpu	-11.9641
pl	-11.9643
▁vãn	-11.9648
▁lebanon	-11.9656
▁vỹ	-11.9657
▁ngây	-11.9659
nlđ	-11.966
cro	-11.9662
bury	-11.9664
▁break	-11.9667
▁lậy	-11.9676
nel	-11.9678
cola	-11.9687
▁link	-11.9695
▁raqqa	-11.9697
▁lyon	-11.9702
▁mứt	-11.9705
▁hamas	-11.9713
sham	-11.9713
ỵ	-11.9721
kiến	-11.9722
▁lady	-11.9732
xd	-11.9732
bot	-11.9736
▁ie	-11.9739
▁pit	-11.974
ket	-11.9742
▁uẩn	-11.9742
sburg	-11.9742
▁xua	-11.9749
dge	-11.9751
▁pala	-11.9752
nhạc	-11.9754
▁str	-11.9757
▁ngửa	-11.9757
▁nản	-11.9757
▁vắt	-11.9757
▁hổi	-11.9761
vc	-11.9762
cựu	-11.9763
ọt	-11.9771
tạm	-11.9774
emmanuel	-11.9778
▁grammy	-11.9778
▁đtqg	-11.9778
ambridge	-11.9779
▁bio	-11.978
▁tỵ	-11.9781
▁luat	-11.9782
zel	-11.9792
nom	-11.9798
▁lgbt	-11.9798
thần	-11.9805
benz	-11.9806
▁fat	-11.9809
▁cồ	-11.981
cluding	-11.9819
▁gọt	-11.9821
pre	-11.9826
▁how	-11.983
▁som	-11.9833
▁fashion	-11.9839
▁yểm	-11.9839
▁woman	-11.9841
▁publish	-11.986
▁abbas	-11.986
▁brexit	-11.986
serv	-11.986
▁ell	-11.9862
▁cưa	-11.9867
ẳng	-11.9868
qg	-11.9872
lá	-11.9877
lands	-11.9877
hou	-11.9879
▁god	-11.9879
▁station	-11.988
rib	-11.9883
▁fair	-11.9884
>	-11.9888
▁lều	-11.9889
adi	-11.9895
ội	-11.9897
▁lukaku	-11.9901
▁heart	-11.9904
light	-11.9916
▁xoá	-11.992
▁xịt	-11.9922
▁resort	-11.9922
mark	-11.9924
▁haiti	-11.993
wb	-11.9931
vốn	-11.9933
lực	-11.9936
honduras	-11.9942
▁trêu	-11.9942
research	-11.9942
▁could	-11.9942
cảm	-11.9943
▁spo	-11.9949
gui	-11.9951
▁glu	-11.9951
▁sumer	-11.9951
▁chổi	-11.9963
▁mclaren	-11.9963
▁rỗi	-11.9963
computer	-11.9966
olo	-11.9974
toàn	-11.9975
fan	-11.9976
tine	-11.9977
vua	-11.9979
▁fall	-11.9979
learning	-11.9981
doanh	-11.9981
▁hệt	-11.9986
cà	-11.9988
▁jeff	-11.9995
aba	-12
rp	-12.0005
benjamin	-12.0005
▁bkav	-12.0005
▁ocean	-12.0005
năng	-12.0005
▁cir	-12.0006
▁khét	-12.0006
var	-12.0014
ời	-12.0018
ếu	-12.0018
▁thuat	-12.0018
sil	-12.0023
▁gỏi	-12.0025
▁khỏa	-12.0026
▁every	-12.0029
gle	-12.003
▁prix	-12.003
gio	-12.0033
▁dông	-12.0036
tối	-12.0046
▁little	-12.0046
▁early	-12.0047
▁sjc	-12.0049
▁đọ	-12.005
▁list	-12.0054
edit	-12.0058
phạm	-12.006
mond	-12.0061
▁đò	-12.0064
mohammed	-12.0067
agribank	-12.0067
▁tm	-12.0068
gl	-12.007
dv	-12.0071
cố	-12.0083
▁kas	-12.0083
châu	-12.0086
▁crea	-12.0095
gna	-12.01
mba	-12.0102
tất	-12.0103
vừa	-12.0103
▁chèn	-12.0108
▁ngấm	-12.0109
danh	-12.0112
ừng	-12.0119
▁nhọc	-12.0119
▁india	-12.0125
xác	-12.0128
▁stu	-12.0129
▁mala	-12.0129
inger	-12.013
▁ksnd	-12.0131
▁million	-12.0134
▁kai	-12.0135
▁chàm	-12.0138
▁zen	-12.0148
trừ	-12.015
▁lửng	-12.0152
▁yonhap	-12.0152
▁lem	-12.0154
▁nến	-12.0156
ject	-12.0159
sam	-12.0172
▁vp	-12.0173
▁yahoo	-12.0173
▁tỳ	-12.0177
gr	-12.0183
ngân	-12.0185
▁kal	-12.0185
rancisco	-12.0193
imbledon	-12.0194
▁sti	-12.0194
▁ae	-12.0198
wick	-12.0198
sie	-12.02
▁guam	-12.0202
ense	-12.0203
syn	-12.0205
cr	-12.0207
chức	-12.0213
republic	-12.0215
▁ahmad	-12.0215
▁nghiem	-12.0216
▁otto	-12.0217
▁potter	-12.0218
stra	-12.0218
..."	-12.0233
▁idlib	-12.0237
▁trặc	-12.0237
▁nhuệ	-12.024
▁natri	-12.0241
▁mis	-12.0244
▁rain	-12.0245
quả	-12.0247
▁major	-12.0247
▁fon	-12.0248
bro	-12.025
hal	-12.0257
▁sắn	-12.0258
etinbank	-12.0258
▁marvel	-12.0259
chương	-12.026
▁somalia	-12.026
trick	-12.026
inter	-12.027
giả	-12.0278
chẳng	-12.0279
▁hindu	-12.028
▁aston	-12.0287
une	-12.0291
▁stars	-12.0291
play	-12.0293
▁uông	-12.0294
dưới	-12.0299
lợi	-12.0299
quyền	-12.03
▁nhấp	-12.0301
▁reagan	-12.0301
quản	-12.0301
ghi	-12.0303
món	-12.0305
ffe	-12.0308
▁change	-12.0309
▁deep	-12.0314
nny	-12.032
▁fle	-12.0327
world	-12.0344
▁houston	-12.0344
use	-12.0356
▁tron	-12.0357
fr	-12.0358
mô	-12.0358
▁titan	-12.0363
position	-12.0367
▁ruồi	-12.0367
▁kham	-12.037
book	-12.0372
▁anime	-12.0376
▁dưng	-12.0381
▁lb	-12.0383
djokovic	-12.0387
▁lùm	-12.0387
kíp	-12.0388
▁tesla	-12.0388
▁nặc	-12.0389
▁express	-12.039
varman	-12.0393
▁girls	-12.0394
▁chợt	-12.0394
fta	-12.0401
▁thor	-12.0415
▁design	-12.0421
▁hama	-12.0424
▁marawi	-12.0431
▁sưởi	-12.0431
ngoại	-12.0433
▁brand	-12.0434
▁húc	-12.0436
get	-12.0445
▁andy	-12.0445
▁musk	-12.0447
▁fal	-12.0447
ati	-12.0449
▁congo	-12.045
▁eva	-12.0452
medvedev	-12.0452
▁brunei	-12.0452
▁chước	-12.0454
khánh	-12.0457
▁blues	-12.0464
▁sara	-12.0472
▁bell	-12.0473
▁history	-12.0474
▁bục	-12.0474
rian	-12.0477
▁leg	-12.0477
▁xk	-12.0479
▁htv	-12.0483
hung	-12.0488
▁lar	-12.0493
▁wayne	-12.0495
rina	-12.0495
▁sing	-12.0496
qualcomm	-12.0496
▁cqđt	-12.0496
▁kir	-12.0497
rập	-12.0499
nóng	-12.0503
▁bỉnh	-12.0507
▁giằng	-12.0519
▁xài	-12.052
kcn	-12.0522
qh	-12.0524
▁jang	-12.0532
▁ghê	-12.0541
stone	-12.0545
▁gao	-12.0549
mở	-12.055
▁sil	-12.0556
media	-12.0556
▁tele	-12.0556
▁bửu	-12.0562
▁giấm	-12.0562
▁rậm	-12.0562
lev	-12.0567
▁hoả	-12.057
▁đố	-12.0573
▁social	-12.0577
southern	-12.0582
▁trèo	-12.0585
▁thòi	-12.0586
▁duẩn	-12.059
trình	-12.059
▁fur	-12.0596
đá	-12.06
rid	-12.0603
uss	-12.0607
mat	-12.0609
▁ever	-12.061
cop	-12.0611
angelina	-12.0612
vers	-12.0615
▁turn	-12.0615
▁christ	-12.0616
ồ	-12.062
▁dứa	-12.0628
▁vatican	-12.0628
icbm	-12.0629
▁channel	-12.0629
wood	-12.063
mel	-12.0638
qi	-12.0647
▁hắc	-12.0651
run	-12.0654
ampton	-12.0656
▁today	-12.0659
▁bau	-12.0661
eh	-12.0667
cell	-12.067
▁lab	-12.0671
▁''	-12.0671
leonardo	-12.0673
▁vuốt	-12.0675
▁wave	-12.0676
▁lot	-12.0676
tìm	-12.0681
script	-12.0683
▁củi	-12.0687
▁rafael	-12.0695
jin	-12.0698
ado	-12.0705
ania	-12.0712
amburger	-12.0714
ặc	-12.0716
▁tụy	-12.0716
uch	-12.0721
▁phia	-12.0722
▁tat	-12.0724
▁mol	-12.0727
▁johan	-12.0727
▁western	-12.0727
thiếu	-12.0728
ớt	-12.0728
▁mili	-12.0731
bara	-12.0736
đào	-12.0737
▁bừa	-12.074
▁iceland	-12.074
▁tỉa	-12.0741
▁kv	-12.0745
▁trác	-12.0745
▁box	-12.0745
▁bđs	-12.0753
▁travel	-12.0757
gur	-12.076
▁crystal	-12.0763
▁vần	-12.0763
▁apollo	-12.0763
erdinand	-12.0763
▁vế	-12.0765
▁hới	-12.0767
ora	-12.0769
rea	-12.0771
▁gel	-12.0773
iff	-12.0774
lyn	-12.0775
mod	-12.0776
▁sent	-12.0779
▁hussein	-12.0785
sylvania	-12.0785
▁marco	-12.079
sang	-12.0795
▁middle	-12.0808
▁ươm	-12.0808
▁trổ	-12.0809
rah	-12.0816
▁yoga	-12.0818
ridge	-12.0822
sal	-12.0826
▁famous	-12.083
▁hươu	-12.083
▁méxico	-12.083
▁uất	-12.083
▁still	-12.0832
▁vờ	-12.0834
tiểu	-12.0843
▁six	-12.0846
ngay	-12.0847
▁pitt	-12.0847
▁record	-12.0856
▁sahara	-12.0857
may	-12.0866
cuối	-12.0867
ượ	-12.0868
hop	-12.0874
▁sẹo	-12.0879
▁giơ	-12.0879
cộng	-12.089
▁rex	-12.0896
▁shb	-12.0898
èo	-12.0898
ges	-12.0899
▁electro	-12.09
ference	-12.09
▁toả	-12.0901
▁sabeco	-12.0902
▁wonder	-12.0915
hóa	-12.0917
ogistics	-12.0921
▁chrome	-12.0922
lc	-12.0922
▁nhừ	-12.0931
▁kate	-12.0933
bv	-12.0938
▁bênh	-12.0944
▁support	-12.0944
▁geneva	-12.0945
▁gran	-12.0946
▁kei	-12.0947
▁talk	-12.095
lly	-12.095
▁church	-12.095
ona	-12.0953
loomberg	-12.0955
▁heli	-12.0962
tl	-12.0962
viện	-12.0963
hạng	-12.0966
▁alibaba	-12.0967
▁isaac	-12.0967
▁ezzor	-12.0967
▁project	-12.0968
vật	-12.0984
ừ	-12.0986
phe	-12.099
▁alaska	-12.099
▁twice	-12.099
polis	-12.0993
▁terry	-12.0993
trọng	-12.1008
▁cli	-12.1011
gây	-12.1011
nó	-12.1012
▁example	-12.1013
▁cúi	-12.1019
▁based	-12.1024
▁xac	-12.1024
▁crimea	-12.1032
▁gàng	-12.1042
▁sound	-12.1045
ưu	-12.1046
tiến	-12.1052
▁fast	-12.1053
vô	-12.1054
phía	-12.1055
msterdam	-12.1059
▁indepen	-12.1059
ating	-12.106
▁chướng	-12.1064
▁tuan	-12.1074
▁phiệt	-12.1087
▁thà	-12.1099
tail	-12.1101
ặng	-12.1101
cúp	-12.1103
sân	-12.1104
▁đkvđ	-12.1106
▁ajax	-12.1106
▁síp	-12.1106
▁baby	-12.1106
wing	-12.1109
shin	-12.1109
mé	-12.111
▁sửu	-12.1116
▁mĩ	-12.1117
ili	-12.1119
▁wel	-12.112
=	-12.1123
▁og	-12.1123
chusetts	-12.1129
▁dmitry	-12.1129
▁sergei	-12.1129
▁latvia	-12.1129
bus	-12.1136
dai	-12.1139
elbourne	-12.1149
▁atgt	-12.1154
▁order	-12.116
▁andro	-12.1163
▁chuong	-12.1163
▁toc	-12.1165
▁sọc	-12.1176
▁xiếc	-12.1177
thống	-12.1177
▁began	-12.1181
boy	-12.1184
▁kr	-12.1186
worth	-12.1197
▁phông	-12.1198
process	-12.12
▁dè	-12.1201
ux	-12.1205
▁bruce	-12.1211
▁another	-12.1223
triều	-12.1223
cảnh	-12.1223
khoa	-12.1227
▁chieu	-12.123
▁jay	-12.123
▁wer	-12.1231
▁ntm	-12.1236
▁đác	-12.1237
▁oxford	-12.1247
▁litva	-12.1247
tum	-12.1252
▁ronald	-12.1252
▁ngói	-12.1253
▁ring	-12.1258
biến	-12.1266
▁tủy	-12.1267
▁nghẹt	-12.127
▁concept	-12.1271
té	-12.1274
wannacry	-12.1274
wen	-12.1283
mportant	-12.1294
▁airbus	-12.1294
▁kane	-12.1295
▁hin	-12.1296
▁gau	-12.1303
▁ngủi	-12.1305
▁oppo	-12.131
maradona	-12.1318
▁battle	-12.1318
mang	-12.1319
air	-12.1323
ants	-12.1325
▁vnd	-12.1327
▁suv	-12.1328
ằng	-12.1329
▁muon	-12.1329
▁popular	-12.1342
▁sà	-12.1346
▁special	-12.1349
▁corpor	-12.135
aq	-12.1352
▁mode	-12.1354
pal	-12.136
▁abdul	-12.1365
▁arthur	-12.1366
▁jon	-12.1366
▁thieu	-12.1367
▁sủng	-12.1368
vận	-12.1369
town	-12.137
cen	-12.1374
iều	-12.1376
▁lenin	-12.1379
soft	-12.138
▁khố	-12.1381
▁robin	-12.1386
emirates	-12.1389
▁ankara	-12.1389
▁ỏi	-12.139
ườm	-12.1392
ạng	-12.1393
standard	-12.1395
nhnn	-12.1398
vẫn	-12.1399
▁wide	-12.1403
▁cụt	-12.1411
▁fact	-12.1411
nar	-12.1412
▁fort	-12.1412
▁bch	-12.1413
▁married	-12.1413
▁netflix	-12.1413
▁nxb	-12.1413
▁assyria	-12.1414
▁garden	-12.1415
▁term	-12.1415
▁diều	-12.1416
ffi	-12.1417
phiên	-12.1418
▁too	-12.1423
▁mauri	-12.1433
▁thiếp	-12.1438
▁rí	-12.1439
moo	-12.1441
▁mắng	-12.1448
sao	-12.1452
▁lived	-12.1454
phố	-12.1454
▁korea	-12.1456
coutinho	-12.1461
abi	-12.1463
▁trảng	-12.1463
▁phồng	-12.1469
kỷ	-12.1469
▁nạt	-12.1473
▁chích	-12.1477
▁dec	-12.1479
▁pvc	-12.1483
gos	-12.1484
▁anthony	-12.1485
▁chập	-12.1485
▁things	-12.1488
▁olympia	-12.1489
▁davis	-12.1489
▁profess	-12.149
▁kpop	-12.1491
▁host	-12.1492
▁oa	-12.1496
▁goal	-12.1503
▁much	-12.1507
▁ứ	-12.151
topher	-12.1511
▁thằng	-12.1513
▁maroc	-12.1513
pf	-12.1516
▁mam	-12.1524
▁saa	-12.1526
style	-12.1531
▁jersey	-12.1534
▁nixon	-12.1534
▁pleiku	-12.1534
▁mono	-12.1535
▁xùm	-12.1539
nên	-12.1541
trang	-12.1541
hạt	-12.1549
pod	-12.1553
▁cào	-12.1555
▁khay	-12.1559
chan	-12.156
▁nico	-12.1564
▁server	-12.1569
chiếc	-12.1575
song	-12.1576
gel	-12.1576
bánh	-12.1582
▁mấu	-12.1583
qt	-12.1583
▁darwin	-12.1583
▁mọng	-12.1585
▁vạ	-12.1588
hiệp	-12.1591
tors	-12.1595
aj	-12.1597
tế	-12.1598
kon	-12.1598
motion	-12.1599
▁madonna	-12.1607
▁gabriel	-12.1607
yzantine	-12.1607
▁alexand	-12.1607
▁orchest	-12.1608
zen	-12.1608
▁stream	-12.1608
▁money	-12.1611
▁court	-12.1612
oro	-12.1619
▁dor	-12.1621
chữ	-12.1622
live	-12.1623
oon	-12.1626
▁become	-12.1632
▁hum	-12.165
▁usa	-12.1652
sư	-12.1656
▁vest	-12.1665
▁sap	-12.1671
▁nhô	-12.1675
▁startup	-12.1681
vl	-12.1687
▁suôn	-12.1688
đài	-12.1691
ép	-12.1692
vĩnh	-12.1693
hol	-12.1696
▁gộp	-12.1706
▁chầu	-12.1708
eus	-12.1709
▁summer	-12.1709
▁bđ	-12.171
▁pole	-12.1711
hương	-12.1727
thủy	-12.1728
▁secret	-12.1728
hyun	-12.1728
▁hom	-12.1728
▁univers	-12.173
brussels	-12.173
woo	-12.173
▁dt	-12.1733
▁hose	-12.1733
drive	-12.1733
▁bieu	-12.1737
▁match	-12.1743
▁organ	-12.1751
lio	-12.1761
hd	-12.1766
mont	-12.1767
chuyên	-12.177
▁ngoi	-12.1773
uma	-12.178
rankfurt	-12.178
vic	-12.1781
ạo	-12.1781
▁buoc	-12.1783
una	-12.1785
▁oán	-12.1788
asa	-12.1788
thing	-12.1791
▁ear	-12.1792
minister	-12.1793
viên	-12.1798
▁chần	-12.1805
▁gập	-12.1805
▁uranium	-12.1805
▁lock	-12.1806
graph	-12.1807
▁oda	-12.1812
young	-12.1815
▁matt	-12.1817
ẫn	-12.1821
biết	-12.1823
khả	-12.1824
▁thóc	-12.183
▁silva	-12.1834
real	-12.1834
▁hạc	-12.1835
tx	-12.1836
vp	-12.1837
▁găng	-12.1838
▁thiêm	-12.1841
ave	-12.1843
▁core	-12.1845
▁nạc	-12.1845
iển	-12.1846
nghị	-12.1853
vòng	-12.1853
▁chói	-12.1854
hồi	-12.1857
▁sala	-12.1862
▁phết	-12.187
biểu	-12.1872
mức	-12.1872
▁malta	-12.1883
ặ	-12.1883
▁dark	-12.1884
▁liban	-12.1885
▁fun	-12.1891
tấn	-12.1898
bóng	-12.1898
▁kilo	-12.1901
▁nặn	-12.1901
udd	-12.1902
▁hợi	-12.1905
đóng	-12.1906
▁benh	-12.1908
vtv	-12.1909
oh	-12.1914
▁petr	-12.1915
▁cafe	-12.1924
▁trói	-12.1931
đô	-12.1934
▁kay	-12.194
ines	-12.1945
▁nghé	-12.195
▁iu	-12.1951
▁need	-12.1952
front	-12.1971
usd	-12.1973
ates	-12.1974
slav	-12.1976
▁khoanh	-12.1976
til	-12.1977
▁era	-12.1978
▁rh	-12.198
product	-12.1981
▁living	-12.1981
inawatra	-12.1981
▁report	-12.1982
▁assad	-12.1984
▁child	-12.1989
▁gdđt	-12.1992
▁singer	-12.2001
vol	-12.2001
print	-12.2001
tuần	-12.2002
cur	-12.2004
universe	-12.2006
▁russell	-12.2007
ball	-12.2007
▁phách	-12.2009
▁huyệt	-12.2011
▁just	-12.2012
enne	-12.2013
▁chart	-12.2013
gor	-12.2014
▁marin	-12.2015
quang	-12.2015
▁actor	-12.2017
ious	-12.2026
ometimes	-12.2028
▁meta	-12.2029
▁plaza	-12.2033
khóa	-12.2035
usa	-12.2037
▁jason	-12.2038
▁rôma	-12.2042
:*	-12.2046
▁tony	-12.2049
ely	-12.205
bio	-12.2052
lãnh	-12.2054
▁formosa	-12.2058
xo	-12.2059
uff	-12.2064
▁méo	-12.2064
▁sá	-12.2066
election	-12.2066
▁múc	-12.2067
▁ig	-12.2068
▁close	-12.2069
▁rod	-12.2069
▁trailer	-12.207
hướng	-12.2078
▁pharma	-12.2083
▁mill	-12.2087
round	-12.2093
active	-12.2099
ubtvqh	-12.2109
▁trau	-12.2112
bàn	-12.2117
▁beat	-12.2118
▁htc	-12.2118
▁gary	-12.212
mission	-12.2126
▁third	-12.2127
sus	-12.2131
▁nhoáng	-12.2135
▁chằng	-12.2136
ein	-12.2136
▁kabul	-12.2136
▁fia	-12.2142
cie	-12.2149
▁tằm	-12.2161
▁athens	-12.2161
▁kelly	-12.2161
▁rảnh	-12.2171
zin	-12.2179
european	-12.2186
tầm	-12.2187
▁silver	-12.2187
rate	-12.2188
▁lẩu	-12.2188
enberg	-12.2189
▁moved	-12.219
▁quýt	-12.2195
▁race	-12.221
ezbollah	-12.2213
▁lười	-12.2213
lớp	-12.2213
building	-12.2216
ngôi	-12.2223
▁adn	-12.2227
together	-12.2239
▁ohio	-12.2239
▁uae	-12.2241
dom	-12.2242
nha	-12.2243
▁spin	-12.2246
riedrich	-12.2252
▁gali	-12.2252
aria	-12.2253
feld	-12.2256
imo	-12.2263
▁noo	-12.2263
ela	-12.2264
▁rodrigo	-12.2265
▁rìa	-12.2265
▁cộ	-12.2276
dong	-12.2282
eira	-12.2284
▁marc	-12.2286
volution	-12.2291
▁dơi	-12.2291
khaisilk	-12.2291
▁wilson	-12.2292
▁seung	-12.2296
▁líu	-12.2304
mand	-12.2308
khai	-12.2312
▁vincent	-12.2317
▁ghana	-12.2318
▁lucas	-12.2319
ayback	-12.2322
trị	-12.2328
xít	-12.2329
phù	-12.2331
▁bass	-12.2333
▁chòm	-12.2343
▁junior	-12.2344
vec	-12.2347
▁batman	-12.2347
▁dell	-12.236
▁philipp	-12.2378
▁yel	-12.238
▁bẩy	-12.2381
▁kèn	-12.2383
đều	-12.2384
▁murray	-12.2396
▁species	-12.2396
▁isbn	-12.2396
▁abc	-12.2399
▁hả	-12.2401
trận	-12.2402
▁oled	-12.2407
claude	-12.2411
▁kền	-12.2418
rc	-12.2419
▁coca	-12.242
▁brian	-12.2421
uro	-12.2422
▁alfred	-12.2423
chnology	-12.2424
▁feet	-12.2425
nusra	-12.2425
iii	-12.2427
gawa	-12.2428
▁aids	-12.2432
▁mars	-12.2443
▁benfica	-12.2449
▁đĩnh	-12.2449
▁http	-12.245
▁kuala	-12.245
▁thuan	-12.2453
linh	-12.2458
▁europe	-12.2458
▁ela	-12.246
mura	-12.2461
rew	-12.2466
▁role	-12.2468
vy	-12.247
dha	-12.247
dùng	-12.247
ability	-12.2476
arseille	-12.2476
▁ốp	-12.2477
▁means	-12.2478
thy	-12.2483
▁lisa	-12.2483
lô	-12.2485
▁nua	-12.2486
▁sảo	-12.2489
▁samuel	-12.2503
▁civil	-12.2503
gene	-12.2506
▁sộ	-12.251
^	-12.2511
triển	-12.2512
▁khau	-12.2516
idi	-12.252
gas	-12.2521
▁vữa	-12.253
▁mikhail	-12.253
▁hillary	-12.253
nagement	-12.253
▁richter	-12.2531
▁father	-12.2533
▁nhổ	-12.2535
▁systems	-12.2536
▁nhịn	-12.2536
▁gv	-12.2546
ized	-12.2547
▁vietjet	-12.2557
▁insulin	-12.2557
▁sếp	-12.2557
▁czech	-12.2557
▁patrick	-12.2558
▁chiec	-12.2558
aire	-12.2569
▁past	-12.2579
▁metal	-12.2582
▁mario	-12.2582
director	-12.2582
▁masters	-12.2592
tơ	-12.2592
ốn	-12.2596
▁sna	-12.2598
▁copa	-12.2599
▁phồn	-12.2607
▁abram	-12.2611
▁thừng	-12.2611
▁lẻo	-12.2626
iếp	-12.2628
hawk	-12.2628
▁works	-12.2628
ew	-12.2632
▁five	-12.2636
▁tiếu	-12.2639
▁monte	-12.2642
▁event	-12.2646
▁given	-12.2647
▁books	-12.2648
lock	-12.2659
asia	-12.2661
▁ngơ	-12.2662
▁lumpur	-12.2665
▁mora	-12.2667
▁giỗ	-12.2667
▁plant	-12.2669
▁nguyền	-12.267
thừa	-12.2678
thro	-12.2678
▁hart	-12.2679
▁ló	-12.2688
nit	-12.2689
▁nhăn	-12.2691
▁dầm	-12.2692
▁census	-12.2692
thì	-12.2696
▁trút	-12.2705
iếc	-12.2705
chế	-12.2706
▁nguon	-12.271
khách	-12.2713
▁bale	-12.2713
lễ	-12.2716
sson	-12.2717
▁ỷ	-12.2719
etanyahu	-12.2719
lesterol	-12.2719
▁vectơ	-12.2719
▁ecuador	-12.2719
▁sergio	-12.272
▁amin	-12.2722
▁soo	-12.2722
▁left	-12.2723
▁attack	-12.2724
▁nọ	-12.2726
ằn	-12.2733
quyết	-12.2734
▁rule	-12.2735
eta	-12.2745
▁nghẹn	-12.2747
▁penalty	-12.2747
▁knock	-12.2747
▁viktor	-12.2747
hon	-12.2751
hỗ	-12.2754
▁eun	-12.2755
▁digital	-12.2756
zor	-12.2764
say	-12.2765
▁wol	-12.2773
▁manuel	-12.2774
▁panama	-12.2775
dé	-12.2775
▁created	-12.2776
ible	-12.2778
▁follow	-12.2779
▁clark	-12.2782
▁bphone	-12.2782
▁palm	-12.2792
rượt	-12.2799
▁erdogan	-12.2802
▁chiêng	-12.2802
▁scan	-12.2803
▁trĩ	-12.2803
khó	-12.2817
▁duoi	-12.2821
ize	-12.2829
▁siberia	-12.2829
▁forest	-12.2837
▁went	-12.2839
▁neutron	-12.2841
pur	-12.2842
kawa	-12.2843
▁vảy	-12.2843
buri	-12.2843
▁hạo	-12.2843
▁wind	-12.2849
tiên	-12.2851
▁again	-12.2857
▁nần	-12.2857
▁oracle	-12.2857
▁selfie	-12.2857
▁sultan	-12.2857
▁yamaha	-12.2857
ceholder	-12.2857
iện	-12.2858
sso	-12.2859
exandros	-12.2868
▁whit	-12.287
phá	-12.2873
▁quasn	-12.2873
▁dap	-12.2873
▁rho	-12.2881
▁hans	-12.2882
▁giun	-12.2883
▁leader	-12.2885
ducation	-12.2886
▁chốc	-12.2888
▁cross	-12.2891
▁army	-12.2893
vcci	-12.2894
▁niko	-12.2898
cing	-12.2899
▁grande	-12.2899
suk	-12.2903
sức	-12.2904
▁sò	-12.2905
▁ngách	-12.2913
▁xiaomi	-12.2913
xembourg	-12.2913
▁giêsu	-12.2913
▁venice	-12.2915
aga	-12.2923
▁sưa	-12.2925
osa	-12.2931
ằ	-12.2931
▁josé	-12.2941
▁beach	-12.2946
yeong	-12.2947
kk	-12.2952
▁champa	-12.2954
bah	-12.2959
▁disc	-12.296
“	-12.2962
gger	-12.2964
▁took	-12.2964
▁mủ	-12.2965
▁empire	-12.2969
▁cameron	-12.2969
▁owen	-12.2971
duc	-12.2972
ret	-12.298
▁niê	-12.2985
life	-12.2989
▁pai	-12.2989
▁rê	-12.299
▁căm	-12.2991
nghi	-12.2993
khác	-12.2993
quê	-12.2995
bernabeu	-12.2997
marshall	-12.2997
▁massage	-12.2998
▁rơm	-12.3001
▁nhủ	-12.3002
▁angel	-12.3003
▁proton	-12.3006
▁mão	-12.3009
ude	-12.301
ountries	-12.3025
▁kilômét	-12.3025
▁lazio	-12.3025
▁mien	-12.3026
▁warner	-12.3027
ảo	-12.3031
▁came	-12.3035
fran	-12.3047
▁đấng	-12.3053
▁náu	-12.3056
ech	-12.3059
▁hero	-12.3064
▁nhằn	-12.3065
▁does	-12.3069
▁seat	-12.3076
▁cole	-12.3076
đạt	-12.3077
nhiệm	-12.3078
▁alonso	-12.3082
▁buồm	-12.3082
stamford	-12.3082
▁múi	-12.3082
istanbul	-12.3082
▁kingdom	-12.3082
ía	-12.3085
▁xvii	-12.3085
viet	-12.3088
▁susan	-12.3091
heim	-12.3099
luetooth	-12.311
▁aleppo	-12.311
▁xộn	-12.311
▁qđnd	-12.3111
▁sig	-12.3114
▁tâu	-12.3122
▁het	-12.3125
assad	-12.313
▁sờ	-12.3131
▁mk	-12.3133
▁chử	-12.3136
more	-12.3136
▁siro	-12.3137
odriguez	-12.3138
▁built	-12.3138
▁morata	-12.314
ista	-12.3144
▁rico	-12.3146
▁exo	-12.3149
ssel	-12.3163
mmer	-12.3167
▁leclerc	-12.3167
▁coast	-12.3172
▁dĩnh	-12.3173
▁jeans	-12.3175
▁corp	-12.3176
▁gua	-12.3179
▁toát	-12.319
▁nhũ	-12.3194
▁energy	-12.3196
▁trũng	-12.3196
▁spring	-12.3196
▁miami	-12.3197
▁cằn	-12.3201
▁never	-12.3205
▁sx	-12.3208
▁chững	-12.3211
▁mẹo	-12.3223
fort	-12.3224
▁edition	-12.3225
dium	-12.3226
game	-12.3228
lles	-12.3228
tỷ	-12.3228
nông	-12.3233
▁edge	-12.3233
eye	-12.3235
▁điếu	-12.3239
iêu	-12.3241
tura	-12.3242
rad	-12.3247
▁tui	-12.3253
▁thẳm	-12.3253
ckerberg	-12.3254
▁worked	-12.3258
▁chài	-12.3261
ọc	-12.3265
house	-12.327
▁stage	-12.3272
press	-12.3276
security	-12.3282
▁mekong	-12.3282
▁wrote	-12.3282
▁vhttdl	-12.3282
▁sunni	-12.3284
trụ	-12.3286
▁ipod	-12.3288
▁germany	-12.329
▁gióng	-12.3301
leo	-12.3303
▁quí	-12.331
fernando	-12.3311
vinamilk	-12.3311
▁nicolas	-12.3311
vương	-12.3313
www	-12.3314
gtvt	-12.3315
▁artist	-12.3318
▁carter	-12.3318
chợ	-12.3321
▁xuong	-12.3322
▁gaga	-12.3328
▁village	-12.3331
▁glucose	-12.334
▁relat	-12.3345
kul	-12.3348
force	-12.335
▁kenya	-12.3351
▁shop	-12.3361
▁hùm	-12.3369
▁jacob	-12.3369
▁oxide	-12.3371
▁phò	-12.3372
▁ufo	-12.3374
▁kom	-12.3379
michelle	-12.3382
▁mỉm	-12.3383
▁blu	-12.3385
hồng	-12.3389
▁bali	-12.3395
iền	-12.3396
▁biếm	-12.3399
▁vẫy	-12.34
▁xiết	-12.34
dụng	-12.3403
tuổi	-12.3403
tuyên	-12.3404
▁mỳ	-12.3406
▁kids	-12.3418
head	-12.3418
▁nhớt	-12.3423
độc	-12.3424
franklin	-12.3427
▁cabin	-12.3428
▁catwalk	-12.3428
slovenia	-12.3428
source	-12.3433
▁joong	-12.3433
ote	-12.3434
▁cạo	-12.3434
▁luan	-12.3436
▁austral	-12.3437
▁cri	-12.3438
▁jam	-12.3443
naldinho	-12.3446
city	-12.3448
▁stop	-12.3453
ilo	-12.3453
oosevelt	-12.3457
▁square	-12.3457
▁gordon	-12.3458
▁dí	-12.3458
▁ngán	-12.346
▁bella	-12.3464
▁vla	-12.3465
sz	-12.3481
▁mosul	-12.3487
▁xuồng	-12.3491
đảng	-12.3495
▁khali	-12.3496
▁cuông	-12.3497
ẹo	-12.3499
ids	-12.3514
▁modern	-12.3517
▁cruise	-12.3517
▁erik	-12.352
▁dẹt	-12.3521
lập	-12.3524
tùy	-12.3524
▁audio	-12.3527
northern	-12.3539
mai	-12.354
ication	-12.3543
▁thought	-12.3544
▁giỏ	-12.3545
uatemala	-12.3546
▁bhutan	-12.3546
▁gờm	-12.3546
michigan	-12.3546
shima	-12.3547
▁nhom	-12.3552
vấn	-12.3554
▁ain	-12.3555
test	-12.3558
đêm	-12.3561
mouth	-12.357
asi	-12.357
bird	-12.3573
chechnya	-12.3576
▁gắm	-12.3576
▁mazda	-12.3576
writer	-12.3576
bỏ	-12.3576
▁largest	-12.3577
pd	-12.3595
▁canxi	-12.3604
▁huu	-12.3605
▁huawei	-12.3606
▁lợp	-12.3606
ommunity	-12.3606
▁ligue	-12.3609
btc	-12.3626
▁seven	-12.3635
▁bernard	-12.3636
cây	-12.3636
▁ballad	-12.3639
like	-12.364
▁yoo	-12.3646
ée	-12.3657
▁leipzig	-12.3666
software	-12.3666
▁jesus	-12.3666
▁phớt	-12.3666
▁mattis	-12.3667
▁hugo	-12.3671
nê	-12.3671
▁wolf	-12.3672
eno	-12.3673
thôn	-12.3678
giống	-12.3679
▁ngừ	-12.3687
chang	-12.3695
▁lavrov	-12.3696
ucci	-12.3697
▁xú	-12.3699
▁hcb	-12.3704
▁maha	-12.3707
▁houthi	-12.3726
▁pogba	-12.3726
▁jobs	-12.3727
duction	-12.3728
▁thày	-12.373
▁xviii	-12.3734
trở	-12.3743
▁trơ	-12.3745
bic	-12.3753
chuyện	-12.3754
▁harvey	-12.3756
▁thớt	-12.3757
iaea	-12.3758
▁macos	-12.3759
▁nôi	-12.3769
▁andrea	-12.3774
▁luu	-12.3775
▁aged	-12.3775
▁gps	-12.3775
cụ	-12.3776
▁mận	-12.3787
▁thap	-12.3787
▁nike	-12.3792
mobile	-12.3798
▁phàm	-12.3802
▁bxh	-12.3806
link	-12.381
▁puerto	-12.3817
▁jeffrey	-12.3817
▁balkan	-12.3817
▁api	-12.382
mối	-12.3841
nig	-12.3843
uphrates	-12.3848
▁lincoln	-12.3848
cameroon	-12.3848
▁review	-12.3849
màu	-12.3849
▁nghia	-12.385
sung	-12.3865
▁tq	-12.3873
ages	-12.3878
▁bolivia	-12.3878
▁lóc	-12.3884
▁khăng	-12.3888
tian	-12.3902
▁hybrid	-12.3909
▁gởi	-12.3909
qs	-12.3912
▁vhtt	-12.3912
visual	-12.3914
kd	-12.3919
nghiên	-12.3928
▁indian	-12.3932
▁sán	-12.3933
▁ngao	-12.3934
sten	-12.3935
▁mui	-12.3936
sak	-12.3936
▁kind	-12.3939
tsubishi	-12.394
humacher	-12.394
germain	-12.3942
▁chuan	-12.3943
giữ	-12.3949
ener	-12.3951
▁xỉu	-12.3957
dương	-12.3959
▁rica	-12.3961
post	-12.3961
▁members	-12.3963
thịt	-12.3964
iq	-12.3968
▁blood	-12.3971
▁gáy	-12.3971
eti	-12.3972
original	-12.3975
▁xy	-12.398
khí	-12.3985
▁along	-12.3986
▁zhu	-12.3989
▁singh	-12.399
xuân	-12.3991
nguy	-12.3993
work	-12.3998
bến	-12.4001
▁fred	-12.4002
▁rằm	-12.4002
app	-12.4002
▁archi	-12.4005
▁kro	-12.4006
▁comey	-12.4009
▁unit	-12.4012
direct	-12.402
ffer	-12.4021
▁ndt	-12.4023
▁bèo	-12.4027
ular	-12.4031
▁python	-12.4033
▁òa	-12.4034
▁carlo	-12.4038
▁yoon	-12.4039
sim	-12.404
cung	-12.4041
▁mải	-12.4048
▁chun	-12.405
itch	-12.4051
sik	-12.4059
▁turk	-12.4062
▁charlie	-12.4065
▁tennis	-12.4065
▁xù	-12.4066
▁level	-12.4068
▁days	-12.4069
▁cris	-12.4071
chí	-12.4072
gian	-12.4081
▁fly	-12.4087
giúp	-12.4087
cán	-12.4089
sic	-12.4089
▁tiet	-12.4095
▁{\	-12.4096
▁thặng	-12.4097
▁title	-12.4102
ình	-12.4103
▁vò	-12.4104
▁page	-12.4104
hwa	-12.4112
path	-12.4113
idae	-12.412
▁try	-12.4121
duy	-12.4121
▁flores	-12.4128
▁trỏ	-12.413
▁trồ	-12.4137
sun	-12.4137
▁hold	-12.4138
interest	-12.4145
▁cru	-12.4148
mạnh	-12.4152
nằm	-12.4152
▁nhẹn	-12.4153
pie	-12.4153
▁written	-12.4159
▁surface	-12.4159
▁gym	-12.416
▁svđ	-12.4161
▁dẳng	-12.4163
sông	-12.4173
▁nhap	-12.4177
đắk	-12.4184
ppa	-12.4185
▁kid	-12.4187
▁nập	-12.419
▁oliver	-12.419
▁đẽ	-12.4192
▁lđlđvn	-12.4192
evich	-12.4193
hito	-12.4194
▁nea	-12.4195
japanese	-12.4198
part	-12.4204
shu	-12.4208
già	-12.4219
▁kị	-12.4222
▁mbappe	-12.4222
▁islam	-12.4225
▁lóng	-12.4226
▁sab	-12.4226
▁thuý	-12.4226
▁gamma	-12.4228
▁cuong	-12.4228
▁tuồng	-12.4229
▁váng	-12.4253
▁sục	-12.4254
▁morning	-12.4255
▁moore	-12.4257
▁topping	-12.4258
▁nhét	-12.4264
▁mass	-12.4265
▁hil	-12.4275
▁juve	-12.4277
owski	-12.4278
lkswagen	-12.4286
▁douglas	-12.4286
▁lượm	-12.4286
▁phất	-12.4286
▁điểu	-12.4286
▁telecom	-12.4286
pping	-12.429
▁lcd	-12.4291
core	-12.4292
vàng	-12.4293
▁idea	-12.4297
▁bros	-12.4303
đồ	-12.4307
▁kill	-12.4308
▁iron	-12.431
uit	-12.4312
ente	-12.4314
thượng	-12.4317
▁nganh	-12.4317
▁mồng	-12.4318
▁firefox	-12.4318
▁beauty	-12.4318
▁quây	-12.4319
▁site	-12.4321
▁clau	-12.4323
mental	-12.4328
▁nilon	-12.4332
▁roberto	-12.434
▁boris	-12.4348
illinois	-12.435
▁nevada	-12.435
▁algeria	-12.435
horn	-12.435
west	-12.4354
▁wiki	-12.436
hydr	-12.436
▁vâng	-12.4361
đổi	-12.4382
▁effect	-12.4382
▁warren	-12.4384
stal	-12.4386
dale	-12.4386
▁plu	-12.4387
▁fight	-12.4391
gha	-12.4392
tới	-12.4396
rome	-12.4404
▁away	-12.4412
▁version	-12.4415
oul	-12.4427
▁dani	-12.4432
gul	-12.4436
▁emma	-12.4439
yar	-12.4439
ẫu	-12.444
▁ramos	-12.4442
trí	-12.4445
sách	-12.4448
▁hanoi	-12.4449
▁salman	-12.4451
▁xp	-12.4453
▁két	-12.4454
▁novel	-12.4455
▁mân	-12.4459
▁ttck	-12.446
▁slo	-12.4463
▁sỡ	-12.4464
▁records	-12.4465
▁nhọ	-12.4466
gun	-12.4468
▁tít	-12.4468
▁thán	-12.4475
▁beck	-12.4475
▁ngẫm	-12.4481
▁liễn	-12.4482
▁nành	-12.4499
▁cape	-12.4499
▁diana	-12.451
▁ictnews	-12.4513
▁ltd	-12.4513
clar	-12.452
▁kimchi	-12.452
▁planet	-12.4527
▁nhe	-12.4532
▁hoach	-12.4542
▁wilhelm	-12.4545
trolimex	-12.4545
view	-12.4547
eas	-12.455
đứng	-12.455
▁lead	-12.4558
electric	-12.4559
▁allen	-12.4562
▁current	-12.4567
▁drama	-12.4568
lạ	-12.4572
▁dật	-12.4578
▁hấn	-12.4578
▁julius	-12.4578
▁vặn	-12.4578
▁health	-12.4578
▁hòng	-12.4579
▁rạc	-12.458
yev	-12.4588
park	-12.4591
▁movies	-12.4594
▁siri	-12.4602
▁biếu	-12.4613
▁perez	-12.4613
hãy	-12.4616
▁ná	-12.4636
wha	-12.4639
▁hựu	-12.4644
▁bengal	-12.4645
miền	-12.4646
iko	-12.4646
hz	-12.4647
vina	-12.4647
▁rêu	-12.4648
đưa	-12.465
tàu	-12.4651
card	-12.4652
đặt	-12.4652
▁plays	-12.4657
▁phep	-12.4657
▁nba	-12.4659
tích	-12.4664
dro	-12.467
▁brom	-12.4673
tropical	-12.4678
▁methan	-12.4681
▁rông	-12.469
▁niger	-12.4692
▁nation	-12.4696
▁hut	-12.4696
pia	-12.4698
▁homs	-12.4702
▁schu	-12.4704
ides	-12.4706
▁ngứa	-12.4711
▁suzuki	-12.4711
▁served	-12.4711
▁confed	-12.4713
phủ	-12.472
▁harris	-12.472
▁niem	-12.4721
▁find	-12.4734
▁caq	-12.4736
miss	-12.4737
▁trứ	-12.4743
tử	-12.4744
far	-12.4745
elegraph	-12.4745
ering	-12.4746
▁howard	-12.4747
▁soul	-12.4749
thức	-12.475
wang	-12.4752
mate	-12.4752
biệt	-12.4754
▁mễ	-12.4756
▁dằn	-12.4757
▁gea	-12.4765
sley	-12.4767
nền	-12.4768
virus	-12.4769
▁flu	-12.4773
▁homo	-12.4774
pra	-12.4777
penhagen	-12.4778
▁jessica	-12.4778
▁yếm	-12.4778
▁stadium	-12.4778
▁shinzo	-12.4778
ists	-12.4779
▁parts	-12.478
▁vồng	-12.4788
chân	-12.4793
▁rocket	-12.4795
trò	-12.4798
▁ander	-12.4802
▁using	-12.4806
▁mccain	-12.4812
▁similar	-12.4812
tinental	-12.4812
russia	-12.4818
▁aviv	-12.4819
▁hub	-12.4823
dòng	-12.4828
▁calci	-12.4829
sea	-12.4829
xit	-12.4829
▁scar	-12.4832
kis	-12.4838
gent	-12.4841
kai	-12.4845
▁ngùi	-12.4845
military	-12.4845
▁selena	-12.4846
▁protect	-12.4846
▁năn	-12.4849
phê	-12.4859
chung	-12.4864
▁ming	-12.4864
▁local	-12.4865
▁hãnh	-12.4865
▁paulo	-12.4867
▁giàng	-12.4874
▁khoắn	-12.4879
▁caribe	-12.4879
õng	-12.4883
mình	-12.4884
▁mother	-12.4887
▁môtô	-12.489
▁lost	-12.4895
▁walter	-12.4898
sporting	-12.4901
▁think	-12.4903
▁sarah	-12.4903
▁few	-12.4912
▁kansas	-12.4913
istic	-12.4914
▁urani	-12.4914
▁anfield	-12.4914
rist	-12.4915
▁xước	-12.4916
bid	-12.4917
▁mút	-12.4927
▁troi	-12.4929
down	-12.4931
▁mạt	-12.4931
cca	-12.4934
esa	-12.4934
nato	-12.4939
adb	-12.4941
trà	-12.4944
▁sergey	-12.4947
▁đtdđ	-12.4947
▁maduro	-12.4947
anhattan	-12.4948
▁nature	-12.4953
▁indiana	-12.4955
▁acb	-12.496
▁dick	-12.4961
ột	-12.4962
fication	-12.4966
▁ght	-12.4969
box	-12.4978
▁bẹp	-12.4982
▁lõm	-12.4982
▁xuyến	-12.4982
▁spears	-12.4982
▁nnptnt	-12.4983
▁sale	-12.4985
anti	-12.4985
haracter	-12.4989
▁biden	-12.499
sport	-12.5001
bet	-12.5003
▁cairo	-12.5006
▁swa	-12.5006
▁held	-12.5006
▁ảm	-12.5009
▁hae	-12.5011
▁mata	-12.5013
celotti	-12.5016
▁arizona	-12.5016
▁toronto	-12.5016
▁debut	-12.5017
station	-12.5022
alo	-12.5033
▁êng	-12.5033
mountain	-12.5035
friend	-12.5038
adelphia	-12.505
lawrence	-12.505
▁ahmed	-12.505
▁johnny	-12.5053
▁ree	-12.5054
rama	-12.5059
▁dead	-12.5059
▁wanna	-12.506
▁soon	-12.5072
▁program	-12.5081
▁gop	-12.5082
▁nđt	-12.5087
directed	-12.5087
▁wifi	-12.509
bảng	-12.5096
jc	-12.5097
▁khiên	-12.5101
biên	-12.5104
▁bìnhổn	-12.5105
▁uav	-12.5107
tông	-12.5112
ký	-12.5113
▁moldova	-12.512
▁blhs	-12.512
▁experi	-12.512
▁miguel	-12.512
abdullah	-12.512
▁check	-12.512
atherine	-12.5122
▁thoai	-12.5124
▁dnnn	-12.5124
▁lố	-12.5134
▁choàng	-12.5139
nâng	-12.5139
oóc	-12.514
super	-12.5143
▁nghê	-12.5154
▁academy	-12.5155
▁adidas	-12.5155
▁society	-12.5155
▁search	-12.5157
▁miu	-12.5159
▁perry	-12.5162
▁chông	-12.5168
gameshow	-12.517
girl	-12.5175
lina	-12.5179
▁bầm	-12.519
▁mầu	-12.519
▁ngạo	-12.519
▁gội	-12.5194
▁malay	-12.5194
ẩu	-12.5195
mạng	-12.5196
▁gru	-12.5198
▁jeon	-12.5221
▁result	-12.5225
▁period	-12.5225
▁phaolô	-12.5225
▁silic	-12.5225
apdragon	-12.5227
▁lằn	-12.523
▁castro	-12.5231
▁cause	-12.5232
mét	-12.5235
wer	-12.524
▁jane	-12.5241
▁tòi	-12.5242
display	-12.5247
colorado	-12.526
▁career	-12.526
hallenge	-12.5261
lao	-12.5265
nics	-12.5266
joon	-12.5269
▁bruno	-12.5271
▁hills	-12.5274
▁sher	-12.5276
#	-12.5282
este	-12.5282
thụy	-12.5283
▁virgin	-12.529
▁jimmy	-12.5296
▁lđtb	-12.5296
tov	-12.5301
▁bond	-12.5304
ogen	-12.5304
lux	-12.5315
bek	-12.5318
rup	-12.532
vestream	-12.5321
oxy	-12.5324
biển	-12.5327
▁gpu	-12.5328
tuttgart	-12.5331
▁tunisia	-12.5331
▁tớ	-12.5331
ological	-12.5334
double	-12.5336
ượng	-12.5348
▁lord	-12.5349
▁huý	-12.535
▁sion	-12.5355
triệu	-12.5356
borough	-12.5366
▁ngươi	-12.5366
▁without	-12.537
ttcp	-12.537
▁nùng	-12.5371
▁making	-12.5381
▁mướt	-12.5402
▁hazard	-12.5403
▁chet	-12.5406
▁sedan	-12.5407
▁gỉ	-12.5411
water	-12.5411
bé	-12.5418
▁mó	-12.5423
cum	-12.5423
mara	-12.5425
▁tell	-12.5425
ningrad	-12.5428
khar	-12.5429
ppp	-12.5432
▁cặn	-12.5438
▁krym	-12.5438
▁bashar	-12.5438
▁alexis	-12.5441
▁theresa	-12.5443
rahman	-12.5448
▁sẫm	-12.5449
▁db	-12.5449
▁kèo	-12.5459
▁phiện	-12.5461
zia	-12.5462
tial	-12.5462
▁joo	-12.5466
chạy	-12.5467
▁bowl	-12.5472
▁beau	-12.5472
▁actress	-12.5474
thư	-12.5475
bác	-12.5475
cation	-12.5482
▁cruz	-12.5486
▁novosti	-12.551
▁phèn	-12.551
▁tncs	-12.5512
▁thau	-12.5513
zza	-12.5518
▁must	-12.5524
tty	-12.5527
▁arsen	-12.5536
▁stoke	-12.5538
evn	-12.554
huy	-12.5542
inancial	-12.5546
aspersky	-12.5546
▁knight	-12.5546
▁afrin	-12.5547
▁hassan	-12.5549
▁islands	-12.5549
▁marcus	-12.5552
yang	-12.5558
▁basic	-12.5558
gram	-12.5562
nell	-12.5568
ario	-12.5579
khối	-12.558
mohammad	-12.5583
▁mahmoud	-12.5583
▁nissan	-12.5583
ishi	-12.5584
▁khoét	-12.5586
▁\(	-12.5587
▁alma	-12.559
++	-12.559
▁vơi	-12.5591
ọn	-12.5592
chống	-12.5597
pped	-12.5599
▁pack	-12.5601
fri	-12.5619
▁hotspur	-12.5619
▁trót	-12.5619
▁pak	-12.5624
▁semi	-12.5624
▁scic	-12.5628
point	-12.5637
▁geo	-12.5643
▁vun	-12.565
▁sold	-12.5652
▁cour	-12.5652
etta	-12.5653
ault	-12.5656
▁rb	-12.5656
▁airways	-12.5656
▁killed	-12.5658
▁upcom	-12.5658
▁valley	-12.5659
gard	-12.5662
dẫn	-12.5663
services	-12.5668
▁salah	-12.5673
tôn	-12.5674
từng	-12.5682
▁chóc	-12.5684
brook	-12.5689
nổi	-12.5691
▁hwasong	-12.5692
▁tweet	-12.5692
▁ultra	-12.5693
▁giuse	-12.5695
plan	-12.5697
▁ngưu	-12.5699
▁know	-12.5714
▁abraham	-12.5729
▁chắt	-12.5729
▁gật	-12.5729
harapova	-12.5729
▁mall	-12.5734
▁chảnh	-12.5743
▁lồi	-12.5748
hoon	-12.5755
cũ	-12.576
▁pvf	-12.5766
gradient	-12.5766
▁melania	-12.5767
cửa	-12.5767
lấy	-12.5767
▁blogger	-12.5767
▁invest	-12.5769
▁phỉ	-12.5774
movement	-12.5783
▁total	-12.5786
▁inform	-12.5792
căn	-12.5792
▁alli	-12.5796
▁tắn	-12.5804
▁đéc	-12.5804
llarreal	-12.5804
▁jyp	-12.5804
trịnh	-12.5806
teen	-12.5811
lies	-12.5817
▁yale	-12.5822
▁italian	-12.5823
governor	-12.5832
▁casino	-12.5841
▁vector	-12.5841
▁lặc	-12.5844
▁khcn	-12.5845
nier	-12.5847
đan	-12.5851
illo	-12.5854
cci	-12.5856
yuki	-12.5869
đhqg	-12.5876
nderthal	-12.5878
▁chắp	-12.5878
▁hất	-12.5878
▁matthew	-12.5878
▁sủa	-12.5878
▁tgđ	-12.5878
essenger	-12.5878
kers	-12.588
lớn	-12.5882
▁đoái	-12.5883
imi	-12.5891
▁phình	-12.5893
▁feed	-12.5894
▁basil	-12.5905
▁lươn	-12.5912
▁mohamed	-12.5916
▁cooper	-12.5916
▁trượng	-12.5916
▁status	-12.5917
tín	-12.5917
▁shiite	-12.5917
▁rợ	-12.5919
▁chớ	-12.5923
▁bql	-12.5925
▁miller	-12.5926
▁lăm	-12.5929
▁vỏn	-12.5931
rê	-12.5933
▁guy	-12.5939
big	-12.5941
▁flow	-12.5945
▁ngoc	-12.5946
official	-12.5947
trực	-12.5959
đảo	-12.596
▁sặc	-12.5962
▁pate	-12.5962
thân	-12.5963
thổ	-12.5965
kata	-12.5974
hid	-12.5975
▁há	-12.5981
ified	-12.5987
▁sải	-12.5987
▁bướu	-12.5992
▁fanpage	-12.5992
▁queens	-12.5994
▁pir	-12.5995
face	-12.6008
vff	-12.6008
uru	-12.6012
▁champ	-12.6023
matxcơva	-12.603
▁trầu	-12.603
deutsche	-12.603
iroshima	-12.603
▁morgan	-12.6031
huyết	-12.6032
nucle	-12.6035
mọi	-12.6037
▁rồ	-12.6038
cic	-12.6039
▁cbs	-12.6061
▁jaya	-12.6067
orentina	-12.6068
▁orlando	-12.6068
▁ibn	-12.6068
▁police	-12.6068
stanford	-12.607
hang	-12.6071
▁mẩu	-12.6072
▁rights	-12.6073
times	-12.6074
▁give	-12.6075
▁tột	-12.6076
kyu	-12.6077
liệt	-12.6078
▁vạt	-12.6078
yana	-12.6079
▁alen	-12.6082
phon	-12.6085
▁pascal	-12.6087
▁hydra	-12.609
▁true	-12.6093
ensis	-12.6098
pong	-12.6098
▁gpt	-12.61
▁shaw	-12.6106
▁niệu	-12.6107
hùng	-12.6112
▁wild	-12.6113
mbi	-12.6113
▁nest	-12.6116
ought	-12.6118
yong	-12.6121
▁ipo	-12.6124
▁tơi	-12.6133
asean	-12.6144
athletic	-12.6144
▁húy	-12.6144
rsailles	-12.6145
▁kiệu	-12.6145
frac	-12.6146
▁nhỉ	-12.6146
cyclo	-12.6148
▁bow	-12.6157
maryland	-12.6161
▁phien	-12.6167
▁nghien	-12.6176
hose	-12.6179
▁bieber	-12.6183
▁quẩn	-12.6184
▁shinee	-12.6184
▁\[	-12.6184
received	-12.6184
bom	-12.6187
▁others	-12.6187
▁nhòa	-12.6188
▁mịt	-12.6189
ngọc	-12.619
nhiệt	-12.6195
tuyến	-12.6195
oka	-12.6205
lean	-12.6205
tố	-12.6217
▁remix	-12.6222
▁rìu	-12.6222
▁command	-12.6223
▁rieng	-12.6226
▁gioan	-12.6235
▁brother	-12.6235
kiên	-12.6236
▁vạc	-12.6236
code	-12.6256
physi	-12.6256
▁britney	-12.6261
▁vđqg	-12.6261
▁cisco	-12.6262
▁riết	-12.6265
▁miura	-12.6267
thuật	-12.6275
chuẩn	-12.6275
arrow	-12.6277
môn	-12.6283
ũng	-12.6284
▁bói	-12.6293
▁ngóng	-12.6293
▁council	-12.63
himalaya	-12.63
▁soobin	-12.63
▁hcđ	-12.6307
▁kềnh	-12.6312
elect	-12.6329
▁parker	-12.633
▁grow	-12.6335
ntenegro	-12.6339
▁benzema	-12.6339
▁ezzur	-12.6339
▁doping	-12.6339
▁future	-12.634
▁graham	-12.634
▁ngẩn	-12.634
▁chqs	-12.634
▁hễ	-12.6348
khởi	-12.6355
đấu	-12.6355
dorf	-12.6358
roma	-12.6359
corn	-12.6367
đôi	-12.6368
▁hũ	-12.6369
▁abhisit	-12.6378
▁sheikh	-12.6378
▁santos	-12.6379
▁adrian	-12.638
▁kich	-12.638
rút	-12.6383
▁pick	-12.6384
meter	-12.6385
▁huyên	-12.6388
▁those	-12.6388
▁nine	-12.6392
▁delta	-12.6394
bok	-12.6395
▁phoi	-12.6398
tốt	-12.6399
▁đản	-12.6411
▁rihanna	-12.6418
guinness	-12.6418
▁bud	-12.6422
▁rover	-12.6422
▁đk	-12.6428
wald	-12.643
▁ổi	-12.643
chai	-12.643
▁vơ	-12.6432
làng	-12.6435
cứu	-12.6436
video	-12.6436
hãng	-12.6438
▁carbo	-12.6441
xử	-12.6443
som	-12.6445
jonathan	-12.6458
▁logarit	-12.6458
▁tctd	-12.6458
door	-12.6458
▁caesar	-12.6458
▁fund	-12.6467
▁vằn	-12.6468
trợ	-12.6479
astro	-12.648
▁canon	-12.6482
cơn	-12.6497
▁giggs	-12.6497
▁mirror	-12.6497
▁nelson	-12.6497
canadian	-12.6498
wear	-12.65
pul	-12.6502
▁râm	-12.6505
▁chát	-12.6505
▁appear	-12.6508
▁kcna	-12.651
▁kris	-12.6512
thắng	-12.6518
đúng	-12.6518
ppi	-12.6523
▁maxim	-12.6532
aekwondo	-12.6537
rmingham	-12.6537
▁insider	-12.6537
▁stanley	-12.6538
▁focus	-12.6538
lộ	-12.6539
▁tuột	-12.6542
sub	-12.6544
▁katy	-12.6546
▁xíu	-12.6553
break	-12.6563
hood	-12.6565
chánh	-12.6565
atlético	-12.6578
▁nấp	-12.6578
▁html	-12.6578
nounced	-12.6578
▁ảrập	-12.6579
▁pomp	-12.6586
▁mỉa	-12.6591
weight	-12.6591
▁rosa	-12.6593
sài	-12.6601
chọn	-12.6602
ọng	-12.6604
law	-12.6612
▁asus	-12.6622
▁giăng	-12.6622
holdings	-12.6622
osi	-12.6645
▁franco	-12.6646
▁magic	-12.6653
▁ngưòi	-12.6658
▁spider	-12.6659
▁thiếc	-12.666
▁hốc	-12.666
alphabet	-12.6663
▁makes	-12.6664
▁grace	-12.6665
▁founded	-12.667
band	-12.6671
yếu	-12.6672
cải	-12.6673
dung	-12.6679
▁rôn	-12.6681
▁genève	-12.6699
▁jetstar	-12.6699
▁lị	-12.6703
▁amd	-12.6706
vpcp	-12.6712
abad	-12.6719
▁genera	-12.6725
sắc	-12.6726
vượt	-12.6726
album	-12.6726
bourg	-12.6727
▁boys	-12.6729
aribbean	-12.674
paraguay	-12.674
▁vettel	-12.674
▁bilbao	-12.674
▁watson	-12.674
▁hawking	-12.674
▁gangwon	-12.674
▁gpmb	-12.674
who	-12.6741
▁orange	-12.6744
▁shoot	-12.6744
▁classic	-12.6753
▁venus	-12.6754
▁julian	-12.6761
lít	-12.6762
pher	-12.6772
xê	-12.6773
▁valen	-12.6778
▁ekip	-12.6781
▁pyeong	-12.6785
đo	-12.6788
▁areas	-12.6791
▁motors	-12.6798
atory	-12.68
▁hack	-12.6805
hỏi	-12.6819
fone	-12.682
space	-12.6822
function	-12.6823
▁hỷ	-12.6824
▁half	-12.6828
shed	-12.6828
▁attp	-12.684
tốc	-12.6846
ủng	-12.6851
trẻ	-12.6854
▁oman	-12.6857
▁bỉm	-12.6862
marathon	-12.6863
zzarella	-12.6863
▁teaser	-12.6863
▁medal	-12.6866
▁vice	-12.6872
hạn	-12.6873
soo	-12.6886
▁honor	-12.6887
magazine	-12.6905
dynamic	-12.6905
▁vali	-12.6909
lley	-12.691
ullah	-12.6921
▁omar	-12.6929
huyền	-12.6929
politan	-12.693
đun	-12.6936
▁cnvclđ	-12.6947
▁hughes	-12.6947
▁remain	-12.6948
▁helen	-12.695
pati	-12.6951
▁nbc	-12.6952
▁vuong	-12.6952
▁oxi	-12.6952
▁sỉ	-12.6956
▁bst	-12.6958
▁blan	-12.696
anderson	-12.6961
thơ	-12.6968
▁giong	-12.6968
▁centre	-12.698
thật	-12.698
campbell	-12.6988
▁omega	-12.6988
▁cnvc	-12.6989
▁study	-12.6989
▁belle	-12.6989
phục	-12.6991
▁snow	-12.6993
▁steam	-12.6994
▁triền	-12.6994
xô	-12.6998
lash	-12.7
▁teo	-12.7001
▁disease	-12.7004
▁tía	-12.7005
mile	-12.7018
▁sili	-12.7021
nhìn	-12.7023
tani	-12.7023
nhằm	-12.7023
olshevik	-12.703
onaparte	-12.703
▁bần	-12.703
▁liềm	-12.703
▁kén	-12.703
▁legend	-12.7031
▁dollar	-12.7031
▁đẩu	-12.7031
▁border	-12.7032
▁hwang	-12.7034
▁copy	-12.7038
▁lút	-12.7039
▁mẩn	-12.7041
pictures	-12.7047
▁gdck	-12.705
▁trát	-12.7052
ghtarrow	-12.7053
▁plato	-12.7057
▁vienna	-12.7058
aud	-12.7062
ườn	-12.7064
osis	-12.7069
▁dấn	-12.7073
▁pnvn	-12.7073
▁sụn	-12.7073
▁hockey	-12.7073
▁stefan	-12.7073
▁xnk	-12.708
▁luon	-12.7082
▁loét	-12.7084
viê	-12.7089
▁karate	-12.7092
▁rốn	-12.7095
stadio	-12.7097
lite	-12.7098
verse	-12.7103
▁doctor	-12.7106
▁franz	-12.7109
▁hắt	-12.7115
▁nhuần	-12.7115
▁sggp	-12.7115
rashford	-12.7115
daughter	-12.7115
▁elon	-12.7123
▁salad	-12.7129
nderland	-12.7132
ographic	-12.7138
▁chel	-12.7155
▁janeiro	-12.7157
▁ngổn	-12.7159
▁size	-12.7161
▁rùng	-12.7163
nghiệp	-12.717
▁heath	-12.7176
.---	-12.718
▁nations	-12.7184
leksandr	-12.7189
▁winter	-12.719
voi	-12.7195
▁amy	-12.7196
come	-12.7197
ngành	-12.7198
igdemont	-12.72
▁kwh	-12.72
giết	-12.7201
▁macau	-12.7202
▁dahyun	-12.7205
bound	-12.7205
▁tuýp	-12.7209
nstantin	-12.7212
love	-12.7217
▁xén	-12.722
iệp	-12.7224
▁grant	-12.7226
hầu	-12.7233
▁khế	-12.7235
▁poster	-12.7239
although	-12.7243
▁nhựt	-12.7243
harlotte	-12.7243
▁craig	-12.7243
▁turkmen	-12.7243
▁ghềnh	-12.7244
hưng	-12.7246
▁xèo	-12.7246
chứng	-12.7247
▁caused	-12.7247
sexual	-12.7256
ffin	-12.7269
eration	-12.7271
▁hotel	-12.7283
▁xuan	-12.7286
tockholm	-12.7286
▁adolf	-12.7286
▁ctck	-12.729
stream	-12.7297
▁mịch	-12.73
▁boong	-12.7309
tier	-12.732
òn	-12.732
▁nháy	-12.733
▁nhóc	-12.733
▁lopez	-12.733
▁female	-12.733
▁serena	-12.733
▁rình	-12.7332
▁vnđ	-12.7332
gus	-12.7336
▁mồm	-12.7338
▁sệt	-12.7342
phu	-12.7342
nikov	-12.7343
▁farm	-12.7348
▁mênh	-12.736
://	-12.7367
iễu	-12.7368
rash	-12.737
vậy	-12.7375
▁phạn	-12.7377
▁dìu	-12.7379
▁formed	-12.738
▁cancer	-12.7382
inho	-12.7388
▁leave	-12.7397
main	-12.7401
▁nude	-12.7401
▁hoắc	-12.7417
▁noãn	-12.7417
▁suarez	-12.7417
▁gregory	-12.7417
▁cuốc	-12.7419
bhxh	-12.742
body	-12.7423
▁rợn	-12.7424
rius	-12.7425
amine	-12.743
đế	-12.7431
▁loay	-12.7444
▁basel	-12.746
▁phộng	-12.7461
▁plasma	-12.7461
▁nikolai	-12.7461
▁aztec	-12.7461
▁\]	-12.7465
▁barry	-12.7472
▁nhữ	-12.7476
stitute	-12.7479
▁bợ	-12.7483
champion	-12.7486
vệ	-12.7487
craft	-12.7496
list	-12.7502
alloween	-12.7505
▁itunes	-12.7505
▁kiểng	-12.7505
▁diệc	-12.7505
▁góa	-12.7505
▁cyrus	-12.7505
▁osaka	-12.7506
▁tngt	-12.7506
▁qltt	-12.7508
▁walker	-12.751
▁cnlđ	-12.7516
rằng	-12.7519
▁seen	-12.7522
▁lines	-12.7525
zard	-12.7525
▁photon	-12.7526
administ	-12.7526
clb	-12.7529
▁author	-12.7534
gdp	-12.7537
series	-12.7539
rock	-12.7544
▁tróc	-12.7549
▁sierra	-12.7549
▁seattle	-12.7549
▁piece	-12.755
▁bolt	-12.7551
▁steel	-12.7555
▁lẫm	-12.7555
▁lts	-12.7559
rank	-12.756
tori	-12.7591
last	-12.7592
▁vaccine	-12.7593
▁tợn	-12.7593
▁toshiba	-12.7593
tomahawk	-12.7593
▁buoi	-12.7598
dài	-12.7601
ovsky	-12.7603
▁gave	-12.7612
▁vinci	-12.7614
▁indra	-12.762
▁rice	-12.7622
chồng	-12.7622
▁cricket	-12.7638
▁kosovo	-12.7638
▁lisbon	-12.7638
▁animals	-12.7646
đàn	-12.7647
bởi	-12.7647
francois	-12.7649
▁changed	-12.7653
ngôn	-12.7653
▁pence	-12.766
pvn	-12.7677
explorer	-12.7683
▁klopp	-12.7683
▁lenovo	-12.7683
▁museum	-12.7683
▁qlvnch	-12.7683
▁dhabi	-12.7683
▁mueller	-12.7684
▁africa	-12.7684
▁joined	-12.7685
produced	-12.7685
▁vừng	-12.7688
erations	-12.7689
ebastian	-12.7692
▁among	-12.7692
▁broad	-12.7701
tranh	-12.771
▁kru	-12.772
▁blade	-12.7724
▁mị	-12.7725
exandria	-12.7727
nagasaki	-12.7728
▁burnley	-12.7728
▁happy	-12.7728
▁instead	-12.7728
▁münchen	-12.7728
▁diamond	-12.7728
▁sparta	-12.7728
▁brent	-12.7731
uae	-12.7732
▁hiem	-12.7739
canada	-12.774
ccording	-12.7773
▁hecta	-12.7773
buk	-12.7774
trans	-12.7778
▁glass	-12.7779
phổ	-12.7788
hlv	-12.7792
▁ester	-12.7793
tượng	-12.7797
▁stre	-12.7798
▁kaka	-12.7799
▁heavy	-12.7819
▁hót	-12.7819
▁should	-12.7819
▁papua	-12.7819
▁gtgt	-12.7819
▁mount	-12.7819
etz	-12.7821
▁pink	-12.7827
▁busan	-12.7828
▁ghz	-12.7828
▁vpf	-12.7828
▁nọc	-12.783
▁psv	-12.783
trương	-12.7833
▁fried	-12.7834
riya	-12.7846
▁cheonan	-12.7864
▁cells	-12.7866
▁organiz	-12.7878
iệm	-12.7882
vân	-12.7889
user	-12.7898
▁thằn	-12.7907
▁yuri	-12.7908
master	-12.7909
orbachev	-12.791
▁cạp	-12.791
aids	-12.7915
▁prize	-12.7918
iev	-12.7926
|	-12.7927
đẹp	-12.7927
▁roland	-12.793
thánh	-12.7933
▁cmc	-12.7937
verkusen	-12.7956
▁ancient	-12.7956
catholic	-12.7956
▁angola	-12.7957
▁wanted	-12.7959
▁hiep	-12.796
vinashin	-12.7965
▁eight	-12.797
▁julia	-12.7982
carbon	-12.7988
etti	-12.7998
▁scu	-12.8
▁arafat	-12.8002
chemical	-12.8003
▁>>	-12.8003
▁norris	-12.8004
▁nicole	-12.8005
▁nhối	-12.8006
▁dẻ	-12.801
▁cool	-12.8014
▁playing	-12.8019
cấu	-12.8022
▁amino	-12.8022
thêm	-12.8025
economic	-12.8031
santiago	-12.8049
▁tấc	-12.8049
▁russian	-12.8049
hydrate	-12.805
ypg	-12.8053
eller	-12.8067
ụp	-12.8073
bão	-12.8077
ending	-12.808
syria	-12.8086
anasonic	-12.8096
salvador	-12.8096
▁hẻo	-12.8096
▁okinawa	-12.8096
▁phnom	-12.8096
▁ngton	-12.8108
▁provide	-12.8111
▁zalo	-12.8114
▁nien	-12.8128
hei	-12.8128
đáp	-12.8128
▁wong	-12.8137
▁everest	-12.8143
▁hilton	-12.8143
▁blair	-12.8144
▁kyoto	-12.8145
▁nỉ	-12.8145
show	-12.8146
▁keep	-12.8147
▁lèo	-12.8147
ography	-12.815
pressure	-12.8154
mut	-12.8164
bili	-12.8168
▁btv	-12.8174
lạng	-12.8175
hạnh	-12.8181
hiêu	-12.8182
chết	-12.8186
▁gấm	-12.819
▁jamaica	-12.819
▁níu	-12.819
▁porsche	-12.819
▁subject	-12.819
▁justice	-12.819
▁thiểm	-12.819
▁evans	-12.8191
▁nhác	-12.8192
▁tnmt	-12.8192
▁giễu	-12.8192
▁penh	-12.8198
phút	-12.8208
▁cookie	-12.8212
lhq	-12.8215
▁instru	-12.8216
inaphone	-12.8218
you	-12.8224
appeared	-12.8225
▁item	-12.8227
inejad	-12.8237
symphony	-12.8237
▁café	-12.8237
▁manager	-12.8237
ennessee	-12.8237
▁polymer	-12.8238
▁peace	-12.8239
▁mostly	-12.8244
▁cõng	-12.8244
sell	-12.8258
▁zero	-12.8261
dấu	-12.8264
tiết	-12.8269
kashvili	-12.8285
khamenei	-12.8285
nicholas	-12.8285
▁monroe	-12.8285
▁ngợp	-12.8285
▁phèo	-12.8286
▁trust	-12.8289
▁diêu	-12.8289
▁sharon	-12.8291
▁norman	-12.8292
▁within	-12.8298
ngô	-12.83
cậu	-12.8313
tướng	-12.8313
miya	-12.8324
▁chồn	-12.8331
▁gớm	-12.8333
▁emperor	-12.8333
▁gareth	-12.8333
▁bolton	-12.8333
build	-12.8339
▁kobe	-12.8343
leigh	-12.8346
illy	-12.8352
vara	-12.8359
aux	-12.8361
khiến	-12.8363
▁buffon	-12.8381
▁chiềng	-12.8381
▁ngốc	-12.8384
diện	-12.8387
▁soviet	-12.8389
rative	-12.839
▁giở	-12.8392
ouisiana	-12.8399
hyuk	-12.8404
▁câm	-12.8406
rượu	-12.8411
▁mả	-12.8428
hospital	-12.8429
▁zhang	-12.8431
▁xới	-12.8434
toshi	-12.8439
▁rát	-12.8445
state	-12.8445
jung	-12.8446
▁vãi	-12.8454
▁gaul	-12.8464
chơi	-12.8465
▁glyc	-12.8465
đăng	-12.8466
frame	-12.8472
▁ethanol	-12.8478
▁grdp	-12.8478
▁jamie	-12.8478
▁ashley	-12.8479
▁xiên	-12.848
▁click	-12.8481
▁toại	-12.8489
baghdadi	-12.849
▁origin	-12.8497
võ	-12.8506
▁african	-12.8525
▁chừ	-12.8526
sihanouk	-12.8526
urricane	-12.8526
▁riyadh	-12.8526
▁stewart	-12.8526
▁athena	-12.8526
▁vinasun	-12.8527
ditional	-12.8527
quý	-12.8527
▁thét	-12.853
▁nện	-12.8532
▁cities	-12.8542
▁coach	-12.8546
▁once	-12.8551
▁govern	-12.8561
dagascar	-12.8575
warriors	-12.8575
▁arnold	-12.8575
▁gặm	-12.8575
▁cằm	-12.8575
margaret	-12.8575
▁renault	-12.8576
▁ngút	-12.8578
tội	-12.8578
cular	-12.8589
▁alves	-12.8589
made	-12.8599
băng	-12.86
luận	-12.8612
xanh	-12.8617
ière	-12.8627
đau	-12.863
▁gạc	-12.8633
motorola	-12.8635
▁tì	-12.8641
▁lotte	-12.8643
igna	-12.865
▁matsu	-12.8658
đời	-12.8666
▁move	-12.8669
▁located	-12.8674
▁sicilia	-12.8674
▁tiktok	-12.8674
▁method	-12.8674
inaconex	-12.8674
▁julie	-12.8676
▁vinson	-12.8677
hye	-12.8679
▁trớ	-12.8691
▁alice	-12.8693
▁augus	-12.8697
▁héc	-12.8698
▁tamil	-12.8702
cultural	-12.8724
possible	-12.8724
▁xperia	-12.8724
▁jorge	-12.8724
▁flynn	-12.8724
▁titanic	-12.8725
sphere	-12.8728
deep	-12.873
}$	-12.8732
▁better	-12.8732
▁xoang	-12.8737
▁hunt	-12.8747
tứ	-12.8755
tzgerald	-12.8774
▁paddock	-12.8774
▁trudeau	-12.8774
▁having	-12.8774
laintext	-12.8774
▁quạ	-12.8775
thí	-12.8776
iếng	-12.8781
▁cộm	-12.8788
▁sushi	-12.8792
cực	-12.8792
▁stand	-12.8795
▁watt	-12.8797
▁musical	-12.8808
trum	-12.8814
▁working	-12.8815
trạng	-12.8817
food	-12.8817
thuốc	-12.8817
▁chệch	-12.8824
▁trầy	-12.8824
▁module	-12.8824
iscovery	-12.8824
pression	-12.8824
congress	-12.8825
sterling	-12.8827
▁hugh	-12.8838
▁horse	-12.8848
▁ict	-12.8861
group	-12.8864
▁premium	-12.8875
▁sgk	-12.8875
thùng	-12.8882
minster	-12.8884
▁cọp	-12.8888
hộ	-12.8898
▁gơ	-12.8902
▁khal	-12.8925
▁angkor	-12.8925
▁ketchup	-12.8925
▁phoenix	-12.8925
▁lithium	-12.8925
▁hmông	-12.8925
▁ngớt	-12.8927
▁gomez	-12.8927
▁bryan	-12.893
▁damage	-12.8937
▁bhl	-12.8938
▁elite	-12.8959
dành	-12.8973
hevrolet	-12.8976
▁kavkaz	-12.8976
▁khuỷu	-12.8976
ssistant	-12.8977
kích	-12.898
▁vedan	-12.898
▁lép	-12.8982
▁though	-12.8982
▁tuộc	-12.8982
bỉ	-12.8984
olfsburg	-12.8989
▁nhiet	-12.899
▁nice	-12.8999
bầu	-12.9025
giọng	-12.9026
▁bấp	-12.9028
vietlott	-12.9028
aceae	-12.9028
▁holmes	-12.9028
▁driver	-12.903
▁dominic	-12.9037
borussia	-12.9037
▁lower	-12.9052
tructure	-12.9065
▁joan	-12.9073
oklahoma	-12.9079
▁infonet	-12.9079
▁ozone	-12.9079
▁ernest	-12.908
▁martial	-12.908
▁torres	-12.9081
hoài	-12.9082
thích	-12.9084
▁vncb	-12.9085
▁paper	-12.9094
}{	-12.9099
ayev	-12.91
moon	-12.9112
▁join	-12.9123
▁mumbai	-12.9131
▁nghiễm	-12.9131
▁gồ	-12.9131
▁britain	-12.9132
đình	-12.9133
▁ngửi	-12.9133
allah	-12.9133
included	-12.9135
▁gượng	-12.9135
vingroup	-12.9136
▁geun	-12.9142
hoe	-12.9145
ỷ	-12.9152
nintendo	-12.9183
▁mandela	-12.9183
▁wembley	-12.9183
lương	-12.9185
bức	-12.9185
riêng	-12.9187
hộp	-12.919
▁igor	-12.9192
place	-12.92
▁critic	-12.9205
▁friends	-12.9212
▁greg	-12.9213
reich	-12.9231
▁benitez	-12.9236
▁pharaoh	-12.9236
▁chatgpt	-12.9236
▁bosnia	-12.9236
▁đẫy	-12.9236
▁hách	-12.9238
▁ttvn	-12.9247
uefa	-12.9251
▁success	-12.926
crypt	-12.9283
borghini	-12.9288
eximbank	-12.9288
perature	-12.9288
▁românia	-12.9288
▁swansea	-12.9288
▁xòe	-12.9288
▁boxing	-12.9292
gặp	-12.9293
israel	-12.9293
▁irma	-12.9296
▁são	-12.9301
ró	-12.9312
▁cold	-12.9323
problems	-12.9335
lockheed	-12.9341
▁nấc	-12.9341
▁patriot	-12.9341
▁comedy	-12.9342
wide	-12.9345
thấy	-12.9347
▁sharp	-12.9353
▁tép	-12.9357
▁vãng	-12.9366
morph	-12.9375
team	-12.9386
ribosome	-12.9394
▁always	-12.9394
▁mafia	-12.9394
▁access	-12.9395
punk	-12.9395
▁highest	-12.9396
▁exist	-12.9398
tuyệt	-12.9402
▁wwe	-12.9409
high	-12.9409
▁rnn	-12.9413
egel	-12.9431
▁flag	-12.944
▁want	-12.9446
▁orleans	-12.9448
▁average	-12.9448
▁sumatra	-12.9448
▁hụi	-12.9448
brighton	-12.9448
▁basque	-12.9448
▁beatles	-12.9448
▁nguôi	-12.9449
▁khăm	-12.9453
flower	-12.9457
▁nylon	-12.9461
uột	-12.9472
ranger	-12.9474
▁return	-12.9478
titution	-12.9478
training	-12.9484
issippi	-12.9501
▁mướn	-12.9501
atlantic	-12.9502
▁shield	-12.9502
habsburg	-12.9502
▁gustav	-12.9502
▁larry	-12.9503
▁paolo	-12.9504
▁dượng	-12.9505
hiểu	-12.9507
xương	-12.9512
dầu	-12.9512
▁chanel	-12.9513
free	-12.9514
ếch	-12.9516
▁maute	-12.9517
▁nhích	-12.9517
tourist	-12.952
cướp	-12.9521
mination	-12.9545
▁giầy	-12.9556
riezmann	-12.9556
▁bavaria	-12.9556
▁captain	-12.9557
▁khước	-12.9557
producer	-12.9559
▁xúp	-12.9562
▁cẳng	-12.9569
toán	-12.9577
▁janet	-12.9603
▁carol	-12.9606
▁tộ	-12.9607
roshenko	-12.961
▁violin	-12.961
▁competi	-12.9611
▁voọc	-12.9611
▁weibo	-12.9611
▁value	-12.9612
▁depp	-12.9637
lenin	-12.9643
niversal	-12.9661
▁ontario	-12.9665
▁medical	-12.9665
▁zined	-12.9665
▁=>	-12.9666
▁cđcs	-12.9667
▁winner	-12.9668
rliament	-12.9669
vari	-12.9669
▁danny	-12.9675
▁castle	-12.9679
tục	-12.968
daw	-12.968
▁hunter	-12.969
saxon	-12.969
đê	-12.9698
load	-12.9698
▁nắn	-12.9715
▁riềng	-12.9719
▁stylist	-12.9719
▁almost	-12.9719
▁gothic	-12.972
▁birds	-12.972
▁minzy	-12.9721
sleep	-12.9722
▁phêrô	-12.9724
▁phillip	-12.9734
nhập	-12.9736
đáng	-12.9743
truction	-12.9743
ẫy	-12.9764
▁kamal	-12.9765
analysis	-12.9775
▁enrique	-12.9775
▁lức	-12.9775
▁nhõm	-12.9775
▁pérez	-12.9775
▁lỏi	-12.9775
▁murphy	-12.9775
▁ninja	-12.9775
missouri	-12.9775
▁luke	-12.9776
▁dột	-12.9779
▁chẻ	-12.978
▁myung	-12.9781
▁luther	-12.9782
▁korean	-12.9789
xếp	-12.9793
xecutive	-12.98
lạc	-12.9806
▁lille	-12.9823
dinburgh	-12.983
hitaryan	-12.983
tzerland	-12.983
charlton	-12.983
▁dỏm	-12.983
▁spirit	-12.9831
▁falcon	-12.9832
▁osama	-12.9833
▁pablo	-12.9833
▁sachsen	-12.9833
▁hớt	-12.9838
pura	-12.9842
núi	-12.985
▁dát	-12.9855
▁nghè	-12.9884
estrogen	-12.9886
▁kashmir	-12.9886
▁novak	-12.9886
▁chavez	-12.9888
hō	-12.989
▁turing	-12.9902
quỹ	-12.9908
ccessful	-12.9916
▁release	-12.9922
▁lự	-12.9937
▁feel	-12.9937
▁bezos	-12.9942
▁hđtv	-12.9942
▁greek	-12.9943
▁tcty	-12.9944
osterone	-12.9945
now	-12.9949
▁ballet	-12.9955
▁speak	-12.9958
nhau	-12.9958
truyện	-12.9965
thầy	-12.9965
cntt	-12.9974
▁carrie	-12.9975
imation	-12.999
rlusconi	-12.9999
▁ngầu	-12.9999
▁chòi	-12.9999
▁xoăn	-12.9999
▁xbox	-13.0002
evsky	-13.0005
sidered	-13.0025
thpt	-13.0034
suke	-13.0038
chloride	-13.0056
ristotle	-13.0056
sociedad	-13.0056
▁studied	-13.0056
▁antoine	-13.0056
▁aaron	-13.0056
▁epstein	-13.0056
▁eagle	-13.0057
robinson	-13.0057
▁hằn	-13.0058
download	-13.0059
▁spain	-13.0063
▁vuot	-13.0064
▁biền	-13.0069
lade	-13.0071
thuận	-13.0082
liệu	-13.0083
▁poet	-13.0086
▁somali	-13.0108
ène	-13.0109
▁spotify	-13.0113
dventure	-13.0113
▁galileo	-13.0113
▁corona	-13.0118
lượt	-13.0141
power	-13.0141
kheo	-13.015
▁pound	-13.0163
phosphat	-13.0167
▁techno	-13.0168
mindanao	-13.017
thompson	-13.017
▁chẵn	-13.017
▁lăk	-13.017
▁nvidia	-13.017
▁vietgap	-13.017
▁đằm	-13.017
▁riedl	-13.017
physical	-13.0171
▁gerard	-13.0172
▁gucci	-13.0176
anov	-13.0185
chùa	-13.02
▁price	-13.0201
johannes	-13.0207
▁histori	-13.0212
▁ngỗng	-13.0228
▁nhấc	-13.0228
▁nứa	-13.0228
▁quậy	-13.0228
▁studies	-13.0228
tanzania	-13.0228
brooklyn	-13.0228
meeting	-13.0229
▁vincom	-13.023
▁trẫm	-13.023
▁atlas	-13.0233
▁spacex	-13.0234
chứ	-13.0238
kéo	-13.0271
bike	-13.0275
▁vượn	-13.0285
bameyang	-13.0286
▁lindsay	-13.0286
▁đuốc	-13.0287
▁rachel	-13.0288
solution	-13.0295
▁quệ	-13.0307
▁collect	-13.0313
lừa	-13.0319
cháu	-13.0319
fest	-13.0322
▁extra	-13.0332
kentucky	-13.0345
▁complex	-13.0345
▁etihad	-13.0345
▁reached	-13.0345
▁sweden	-13.0345
▁above	-13.0345
▁rúng	-13.0345
▁tayyip	-13.0345
▁zambia	-13.0345
▁uganda	-13.0345
fusion	-13.0345
royce	-13.0346
zawa	-13.0348
▁nhút	-13.0348
muốn	-13.0351
emia	-13.0375
quỷ	-13.038
phép	-13.038
hnx	-13.0387
▁format	-13.04
fabregas	-13.0403
necticut	-13.0403
▁donetsk	-13.0404
▁writing	-13.0404
collagen	-13.0404
▁zoom	-13.0405
▁tencent	-13.0405
▁rặng	-13.0408
gương	-13.0408
hữu	-13.0419
▁bloom	-13.0435
pecially	-13.0443
stella	-13.0451
▁charge	-13.0452
▁episode	-13.0455
ancouver	-13.0463
▁nhấm	-13.0463
▁nẻo	-13.0463
▁railway	-13.0463
▁sạp	-13.0463
heinrich	-13.0463
▁điếm	-13.0463
▁elected	-13.0463
▁raymond	-13.0463
ionships	-13.049
ulus	-13.0492
mưa	-13.0501
tributed	-13.0522
▁oregano	-13.0522
▁spanish	-13.0522
▁aguero	-13.0522
▁chinese	-13.0522
▁iberia	-13.0522
▁utah	-13.0522
▁stories	-13.0523
▁celtic	-13.0523
▁solomon	-13.0524
▁marcelo	-13.0525
xxx	-13.0526
▁flight	-13.0529
▁hegel	-13.053
▁turner	-13.0533
year	-13.0539
intercon	-13.0539
zur	-13.0546
bcđ	-13.0554
known	-13.0562
quần	-13.0562
đảm	-13.0562
iraq	-13.0564
đọc	-13.0564
đống	-13.0567
avengers	-13.0582
▁defense	-13.0582
▁zlatan	-13.0582
▁hudson	-13.0582
hatoyama	-13.0582
▁sophie	-13.0582
▁luỹ	-13.0582
▁friday	-13.0583
▁tiệt	-13.0585
princess	-13.0588
alentine	-13.0611
lift	-13.0618
▁kirk	-13.0621
▁happen	-13.0625
warmbier	-13.0642
▁gerrard	-13.0642
▁rưới	-13.0642
▁ntbd	-13.0642
▁theatre	-13.0643
▁chuồn	-13.0643
▁settle	-13.0645
▁đhcđ	-13.0645
separate	-13.0646
hurchill	-13.0687
▁alvaro	-13.0703
▁jaguar	-13.0703
▁nancy	-13.0705
▁silk	-13.0705
▁vogue	-13.0707
keyboard	-13.0716
jonghyun	-13.0726
thads	-13.0729
cạnh	-13.0749
▁expo	-13.075
standing	-13.075
mcdonald	-13.0764
lexandre	-13.0765
postbank	-13.0765
scale	-13.0768
▁issue	-13.0778
colate	-13.0798
igne	-13.0804
based	-13.0812
▁believe	-13.0813
dnnvv	-13.0825
nsomware	-13.0825
▁oneplus	-13.0825
▁rưng	-13.0825
▁adult	-13.0825
▁freedom	-13.0826
ominated	-13.0827
▁holland	-13.083
▁zeus	-13.0832
green	-13.0832
vez	-13.0835
lienviet	-13.0836
▁feder	-13.0855
brothers	-13.0867
stock	-13.0874
gửi	-13.0874
▁produce	-13.088
innesota	-13.0887
▁xuyen	-13.0887
▁degree	-13.0887
▁nhếch	-13.0888
▁ùa	-13.0888
▁ivanka	-13.089
▁leeds	-13.089
luôn	-13.0925
black	-13.0939
▁pepsi	-13.0943
eportivo	-13.0949
dinavia	-13.0949
▁meaning	-13.0949
▁chomsky	-13.0949
nickname	-13.0958
recorded	-13.0969
▁thò	-13.0987
sóc	-13.1003
tuyển	-13.1003
dtts	-13.1003
barbados	-13.1012
hànôịmới	-13.1012
▁chĩa	-13.1012
▁comics	-13.1013
▁sylv	-13.1016
▁jump	-13.1016
wheel	-13.1022
▁karim	-13.1038
imex	-13.1053
lựa	-13.1067
vnpt	-13.107
kespeare	-13.1074
parmesan	-13.1074
▁senegal	-13.1074
▁thẹn	-13.1074
▁watford	-13.1074
▁jerry	-13.1074
▁núp	-13.1075
▁adobe	-13.1075
▁frog	-13.1075
▁observ	-13.1075
rederick	-13.1075
▁airport	-13.1076
▁claim	-13.1076
▁running	-13.1076
}}	-13.1109
shchenko	-13.1138
florence	-13.1138
▁hécta	-13.1139
length	-13.114
▁talent	-13.114
▁clear	-13.114
tncn	-13.1149
nhỉnh	-13.1161
giấy	-13.1198
roadcast	-13.1199
▁crime	-13.1201
▁princip	-13.1201
▁bohemia	-13.1201
▁cassini	-13.1201
▁stuart	-13.1202
methyl	-13.1202
▁rhine	-13.1203
▁wife	-13.1206
system	-13.1263
moglobin	-13.1266
ubcknn	-13.1266
▁algérie	-13.1266
▁foreign	-13.1266
▁murder	-13.1266
▁đuống	-13.1266
▁garros	-13.1267
▁quăng	-13.1269
masdar	-13.1271
mocratic	-13.1272
ologist	-13.1274
related	-13.1328
lĩnh	-13.133
doraemon	-13.133
▁fantasy	-13.133
▁lampard	-13.133
▁mửa	-13.133
▁nikkei	-13.133
▁simpson	-13.133
platform	-13.133
ontinued	-13.133
▁laurent	-13.133
settings	-13.133
▁netbook	-13.133
▁hdbank	-13.1331
atgt	-13.1336
▁turbo	-13.1336
▁symbol	-13.1346
▁picture	-13.1369
ẳ	-13.398
ỹ	-13.782
ẩ	-14.3916
ẵ	-14.9738
ắ	-14.9739
ầ	-14.974
ậ	-14.9741
ấ	-14.9742
ẫ	-14.9742
